{
  "version": "1.0",
  "truncation": null,
  "padding": null,
  "added_tokens": [
    {
      "id": 0,
      "content": "<pad>",
      "single_word": false,
      "lstrip": false,
      "rstrip": false,
      "normalized": false,
      "special": true
    },
    {
      "id": 1,
      "content": "<unk>",
      "single_word": false,
      "lstrip": false,
      "rstrip": false,
      "normalized": false,
      "special": true
    },
    {
      "id": 2,
      "content": "<bos>",
      "single_word": false,
      "lstrip": false,
      "rstrip": false,
      "normalized": false,
      "special": true
    },
    {
      "id": 3,
      "content": "<eos>",
      "single_word": false,
      "lstrip": false,
      "rstrip": false,
      "normalized": false,
      "special": true
    }
  ],
  "normalizer": null,
  "pre_tokenizer": {
    "type": "Whitespace"
  },
  "post_processor": null,
  "decoder": null,
  "model": {
    "type": "BPE",
    "dropout": null,
    "unk_token": "<unk>",
    "continuing_subword_prefix": null,
    "end_of_word_suffix": null,
    "fuse_unk": false,
    "byte_fallback": false,
    "ignore_merges": false,
    "vocab": {
      "<pad>": 0,
      "<unk>": 1,
      "<bos>": 2,
      "<eos>": 3,
      "!": 4,
      "\"": 5,
      "#": 6,
      "$": 7,
      "%": 8,
      "&": 9,
      "'": 10,
      "(": 11,
      ")": 12,
      "*": 13,
      "+": 14,
      ",": 15,
      "-": 16,
      ".": 17,
      "/": 18,
      "0": 19,
      "1": 20,
      "2": 21,
      "3": 22,
      "4": 23,
      "5": 24,
      "6": 25,
      "7": 26,
      "8": 27,
      "9": 28,
      ":": 29,
      ";": 30,
      "<": 31,
      "=": 32,
      ">": 33,
      "?": 34,
      "@": 35,
      "A": 36,
      "B": 37,
      "C": 38,
      "D": 39,
      "E": 40,
      "F": 41,
      "G": 42,
      "H": 43,
      "I": 44,
      "J": 45,
      "K": 46,
      "L": 47,
      "M": 48,
      "N": 49,
      "O": 50,
      "P": 51,
      "Q": 52,
      "R": 53,
      "S": 54,
      "T": 55,
      "U": 56,
      "V": 57,
      "W": 58,
      "X": 59,
      "Y": 60,
      "Z": 61,
      "[": 62,
      "\\": 63,
      "]": 64,
      "^": 65,
      "_": 66,
      "`": 67,
      "a": 68,
      "b": 69,
      "c": 70,
      "d": 71,
      "e": 72,
      "f": 73,
      "g": 74,
      "h": 75,
      "i": 76,
      "j": 77,
      "k": 78,
      "l": 79,
      "m": 80,
      "n": 81,
      "o": 82,
      "p": 83,
      "q": 84,
      "r": 85,
      "s": 86,
      "t": 87,
      "u": 88,
      "v": 89,
      "w": 90,
      "x": 91,
      "y": 92,
      "z": 93,
      "|": 94,
      "}": 95,
      "~": 96,
      "": 97,
      "": 98,
      "¡": 99,
      "¢": 100,
      "£": 101,
      "¥": 102,
      "§": 103,
      "°": 104,
      "±": 105,
      "²": 106,
      "³": 107,
      "´": 108,
      "µ": 109,
      "·": 110,
      "º": 111,
      "½": 112,
      "¿": 113,
      "Á": 114,
      "Ä": 115,
      "Å": 116,
      "Æ": 117,
      "Ç": 118,
      "É": 119,
      "Í": 120,
      "Î": 121,
      "Ñ": 122,
      "Ó": 123,
      "Ö": 124,
      "×": 125,
      "Ø": 126,
      "Ú": 127,
      "Ü": 128,
      "Þ": 129,
      "ß": 130,
      "à": 131,
      "á": 132,
      "â": 133,
      "ã": 134,
      "ä": 135,
      "å": 136,
      "æ": 137,
      "ç": 138,
      "è": 139,
      "é": 140,
      "ê": 141,
      "ë": 142,
      "ì": 143,
      "í": 144,
      "î": 145,
      "ï": 146,
      "ð": 147,
      "ñ": 148,
      "ò": 149,
      "ó": 150,
      "ô": 151,
      "ö": 152,
      "ø": 153,
      "ù": 154,
      "ú": 155,
      "û": 156,
      "ü": 157,
      "ý": 158,
      "þ": 159,
      "Ā": 160,
      "ā": 161,
      "ă": 162,
      "ą": 163,
      "ć": 164,
      "Č": 165,
      "č": 166,
      "Đ": 167,
      "đ": 168,
      "Ē": 169,
      "ē": 170,
      "Ĕ": 171,
      "ĕ": 172,
      "ė": 173,
      "ę": 174,
      "ğ": 175,
      "ħ": 176,
      "ī": 177,
      "İ": 178,
      "ı": 179,
      "Ľ": 180,
      "Ł": 181,
      "ł": 182,
      "ń": 183,
      "Ō": 184,
      "ō": 185,
      "œ": 186,
      "ř": 187,
      "Ś": 188,
      "ś": 189,
      "Ş": 190,
      "ş": 191,
      "Š": 192,
      "š": 193,
      "ţ": 194,
      "ũ": 195,
      "ū": 196,
      "ů": 197,
      "ų": 198,
      "ź": 199,
      "Ż": 200,
      "ż": 201,
      "Ž": 202,
      "ž": 203,
      "ơ": 204,
      "ư": 205,
      "ǎ": 206,
      "ǔ": 207,
      "Ș": 208,
      "ș": 209,
      "ț": 210,
      "ȯ": 211,
      "ɐ": 212,
      "ɑ": 213,
      "ɒ": 214,
      "ɔ": 215,
      "ə": 216,
      "ɛ": 217,
      "ɜ": 218,
      "ɡ": 219,
      "ɢ": 220,
      "ɪ": 221,
      "ɫ": 222,
      "ɳ": 223,
      "ɽ": 224,
      "ɾ": 225,
      "ʁ": 226,
      "ʃ": 227,
      "ʊ": 228,
      "ʋ": 229,
      "ʒ": 230,
      "ʔ": 231,
      "ʕ": 232,
      "ʲ": 233,
      "ʻ": 234,
      "ʼ": 235,
      "ʾ": 236,
      "ʿ": 237,
      "ˈ": 238,
      "ˌ": 239,
      "ː": 240,
      "̃": 241,
      "̍": 242,
      "̥": 243,
      "̯": 244,
      "͍": 245,
      "Δ": 246,
      "Κ": 247,
      "Ν": 248,
      "Π": 249,
      "Τ": 250,
      "Φ": 251,
      "Χ": 252,
      "Ω": 253,
      "ά": 254,
      "έ": 255,
      "ή": 256,
      "ί": 257,
      "α": 258,
      "β": 259,
      "γ": 260,
      "δ": 261,
      "ε": 262,
      "η": 263,
      "θ": 264,
      "ι": 265,
      "κ": 266,
      "λ": 267,
      "μ": 268,
      "ν": 269,
      "ξ": 270,
      "ο": 271,
      "π": 272,
      "ρ": 273,
      "ς": 274,
      "σ": 275,
      "τ": 276,
      "υ": 277,
      "χ": 278,
      "ψ": 279,
      "ω": 280,
      "ό": 281,
      "ύ": 282,
      "ώ": 283,
      "Б": 284,
      "В": 285,
      "Г": 286,
      "К": 287,
      "П": 288,
      "Р": 289,
      "С": 290,
      "У": 291,
      "Х": 292,
      "Я": 293,
      "а": 294,
      "в": 295,
      "г": 296,
      "д": 297,
      "е": 298,
      "ж": 299,
      "з": 300,
      "и": 301,
      "й": 302,
      "к": 303,
      "л": 304,
      "м": 305,
      "н": 306,
      "о": 307,
      "п": 308,
      "р": 309,
      "с": 310,
      "т": 311,
      "у": 312,
      "ц": 313,
      "ш": 314,
      "ъ": 315,
      "ы": 316,
      "ь": 317,
      "ю": 318,
      "я": 319,
      "є": 320,
      "ֵ": 321,
      "ֶ": 322,
      "ָ": 323,
      "ֹ": 324,
      "ּ": 325,
      "א": 326,
      "ב": 327,
      "ג": 328,
      "ה": 329,
      "ו": 330,
      "ז": 331,
      "ח": 332,
      "י": 333,
      "ל": 334,
      "ם": 335,
      "מ": 336,
      "ן": 337,
      "נ": 338,
      "ס": 339,
      "ף": 340,
      "פ": 341,
      "צ": 342,
      "ר": 343,
      "ש": 344,
      "ת": 345,
      "ء": 346,
      "أ": 347,
      "إ": 348,
      "ا": 349,
      "ب": 350,
      "ة": 351,
      "ت": 352,
      "ث": 353,
      "ج": 354,
      "ح": 355,
      "خ": 356,
      "د": 357,
      "ذ": 358,
      "ر": 359,
      "س": 360,
      "ش": 361,
      "ص": 362,
      "ع": 363,
      "ف": 364,
      "ق": 365,
      "ك": 366,
      "ل": 367,
      "م": 368,
      "ن": 369,
      "ه": 370,
      "و": 371,
      "ي": 372,
      "ܐ": 373,
      "ܕ": 374,
      "ܗ": 375,
      "ܝ": 376,
      "ܠ": 377,
      "ܢ": 378,
      "ܬ": 379,
      "ܲ": 380,
      "ܵ": 381,
      "ं": 382,
      "अ": 383,
      "ई": 384,
      "क": 385,
      "ग": 386,
      "ण": 387,
      "त": 388,
      "द": 389,
      "न": 390,
      "प": 391,
      "ब": 392,
      "म": 393,
      "य": 394,
      "र": 395,
      "ल": 396,
      "व": 397,
      "स": 398,
      "ह": 399,
      "ा": 400,
      "ि": 401,
      "ु": 402,
      "ू": 403,
      "े": 404,
      "ै": 405,
      "्": 406,
      "ਅ": 407,
      "ਲ": 408,
      "ਹ": 409,
      "ਾ": 410,
      "ੁ": 411,
      "ੱ": 412,
      "ก": 413,
      "ค": 414,
      "ง": 415,
      "ช": 416,
      "ซ": 417,
      "ญ": 418,
      "ฐ": 419,
      "ณ": 420,
      "ด": 421,
      "ต": 422,
      "น": 423,
      "บ": 424,
      "ป": 425,
      "พ": 426,
      "ภ": 427,
      "ม": 428,
      "ย": 429,
      "ร": 430,
      "ล": 431,
      "ว": 432,
      "ศ": 433,
      "ษ": 434,
      "ส": 435,
      "ห": 436,
      "อ": 437,
      "ะ": 438,
      "ั": 439,
      "า": 440,
      "ิ": 441,
      "ี": 442,
      "ึ": 443,
      "เ": 444,
      "แ": 445,
      "ไ": 446,
      "็": 447,
      "่": 448,
      "้": 449,
      "๊": 450,
      "์": 451,
      "Ⴀ": 452,
      "Ⴂ": 453,
      "Ⴃ": 454,
      "Ⴈ": 455,
      "Ⴌ": 456,
      "Ⴕ": 457,
      "Ⴟ": 458,
      "ა": 459,
      "ბ": 460,
      "გ": 461,
      "დ": 462,
      "ე": 463,
      "ვ": 464,
      "ზ": 465,
      "თ": 466,
      "ი": 467,
      "კ": 468,
      "ლ": 469,
      "მ": 470,
      "ნ": 471,
      "ო": 472,
      "პ": 473,
      "ჟ": 474,
      "რ": 475,
      "ს": 476,
      "ტ": 477,
      "უ": 478,
      "ფ": 479,
      "ქ": 480,
      "ღ": 481,
      "ყ": 482,
      "შ": 483,
      "ჩ": 484,
      "ც": 485,
      "ძ": 486,
      "წ": 487,
      "ჭ": 488,
      "ხ": 489,
      "ჯ": 490,
      "ჰ": 491,
      "ჱ": 492,
      "ჲ": 493,
      "ჳ": 494,
      "ჴ": 495,
      "ჵ": 496,
      "ჶ": 497,
      "ჷ": 498,
      "ჸ": 499,
      "ჹ": 500,
      "ჺ": 501,
      "჻": 502,
      "ᵻ": 503,
      "ḍ": 504,
      "ḏ": 505,
      "Ḥ": 506,
      "ḥ": 507,
      "ṃ": 508,
      "ṅ": 509,
      "ṇ": 510,
      "ṛ": 511,
      "ṣ": 512,
      "ṭ": 513,
      "ṯ": 514,
      "ạ": 515,
      "ả": 516,
      "ấ": 517,
      "ầ": 518,
      "ậ": 519,
      "ắ": 520,
      "ễ": 521,
      "ệ": 522,
      "ị": 523,
      "ọ": 524,
      "ỏ": 525,
      "ỗ": 526,
      "ộ": 527,
      "ớ": 528,
      "ứ": 529,
      "ử": 530,
      "ữ": 531,
      "ỳ": 532,
      "ỹ": 533,
      "ἀ": 534,
      "ἰ": 535,
      "ὀ": 536,
      "ὁ": 537,
      "ὑ": 538,
      "​": 539,
      "‐": 540,
      "‑": 541,
      "–": 542,
      "—": 543,
      "―": 544,
      "‘": 545,
      "’": 546,
      "“": 547,
      "”": 548,
      "„": 549,
      "†": 550,
      "‡": 551,
      "•": 552,
      "…": 553,
      "′": 554,
      "″": 555,
      "⁄": 556,
      "₣": 557,
      "₤": 558,
      "€": 559,
      "₹": 560,
      "⅓": 561,
      "⅔": 562,
      "→": 563,
      "−": 564,
      "≤": 565,
      "①": 566,
      "☉": 567,
      "☫": 568,
      "♀": 569,
      "♭": 570,
      "♯": 571,
      "⚳": 572,
      "〈": 573,
      "〉": 574,
      "〜": 575,
      "あ": 576,
      "い": 577,
      "う": 578,
      "お": 579,
      "か": 580,
      "が": 581,
      "き": 582,
      "ぎ": 583,
      "く": 584,
      "ぐ": 585,
      "け": 586,
      "こ": 587,
      "ご": 588,
      "さ": 589,
      "し": 590,
      "す": 591,
      "ず": 592,
      "ぜ": 593,
      "た": 594,
      "だ": 595,
      "ち": 596,
      "っ": 597,
      "つ": 598,
      "と": 599,
      "な": 600,
      "に": 601,
      "の": 602,
      "は": 603,
      "ば": 604,
      "ひ": 605,
      "ふ": 606,
      "ほ": 607,
      "ま": 608,
      "み": 609,
      "め": 610,
      "も": 611,
      "ゃ": 612,
      "ゆ": 613,
      "ょ": 614,
      "ら": 615,
      "り": 616,
      "る": 617,
      "れ": 618,
      "わ": 619,
      "を": 620,
      "ん": 621,
      "ァ": 622,
      "ア": 623,
      "ィ": 624,
      "イ": 625,
      "ゥ": 626,
      "ェ": 627,
      "エ": 628,
      "ォ": 629,
      "オ": 630,
      "カ": 631,
      "ガ": 632,
      "キ": 633,
      "ク": 634,
      "グ": 635,
      "ゲ": 636,
      "コ": 637,
      "サ": 638,
      "シ": 639,
      "ジ": 640,
      "ス": 641,
      "ズ": 642,
      "セ": 643,
      "タ": 644,
      "ダ": 645,
      "チ": 646,
      "ッ": 647,
      "ツ": 648,
      "テ": 649,
      "デ": 650,
      "ト": 651,
      "ド": 652,
      "ナ": 653,
      "ニ": 654,
      "ネ": 655,
      "ノ": 656,
      "ハ": 657,
      "バ": 658,
      "パ": 659,
      "フ": 660,
      "ブ": 661,
      "プ": 662,
      "ヘ": 663,
      "ベ": 664,
      "マ": 665,
      "ミ": 666,
      "ム": 667,
      "モ": 668,
      "ャ": 669,
      "ュ": 670,
      "ョ": 671,
      "ラ": 672,
      "リ": 673,
      "ル": 674,
      "レ": 675,
      "ロ": 676,
      "ン": 677,
      "ヴ": 678,
      "・": 679,
      "ー": 680,
      "一": 681,
      "七": 682,
      "下": 683,
      "世": 684,
      "丙": 685,
      "中": 686,
      "主": 687,
      "乃": 688,
      "之": 689,
      "乙": 690,
      "九": 691,
      "二": 692,
      "云": 693,
      "人": 694,
      "今": 695,
      "付": 696,
      "作": 697,
      "侗": 698,
      "依": 699,
      "信": 700,
      "傳": 701,
      "儚": 702,
      "充": 703,
      "光": 704,
      "全": 705,
      "兵": 706,
      "其": 707,
      "具": 708,
      "円": 709,
      "再": 710,
      "出": 711,
      "判": 712,
      "前": 713,
      "剛": 714,
      "劇": 715,
      "劉": 716,
      "動": 717,
      "化": 718,
      "北": 719,
      "华": 720,
      "厂": 721,
      "去": 722,
      "古": 723,
      "可": 724,
      "台": 725,
      "史": 726,
      "同": 727,
      "名": 728,
      "君": 729,
      "吳": 730,
      "周": 731,
      "命": 732,
      "和": 733,
      "咲": 734,
      "善": 735,
      "四": 736,
      "國": 737,
      "園": 738,
      "圣": 739,
      "在": 740,
      "坂": 741,
      "堤": 742,
      "場": 743,
      "塘": 744,
      "夕": 745,
      "大": 746,
      "天": 747,
      "夫": 748,
      "女": 749,
      "妙": 750,
      "姚": 751,
      "子": 752,
      "孟": 753,
      "守": 754,
      "安": 755,
      "宋": 756,
      "完": 757,
      "宗": 758,
      "宝": 759,
      "宫": 760,
      "寝": 761,
      "寺": 762,
      "小": 763,
      "少": 764,
      "尾": 765,
      "山": 766,
      "岳": 767,
      "川": 768,
      "州": 769,
      "巳": 770,
      "市": 771,
      "師": 772,
      "平": 773,
      "广": 774,
      "庆": 775,
      "府": 776,
      "座": 777,
      "廬": 778,
      "建": 779,
      "式": 780,
      "張": 781,
      "彌": 782,
      "彩": 783,
      "彼": 784,
      "後": 785,
      "御": 786,
      "德": 787,
      "思": 788,
      "愛": 789,
      "憑": 790,
      "憶": 791,
      "應": 792,
      "懷": 793,
      "战": 794,
      "戦": 795,
      "扈": 796,
      "技": 797,
      "拉": 798,
      "拳": 799,
      "挑": 800,
      "揺": 801,
      "攻": 802,
      "放": 803,
      "政": 804,
      "散": 805,
      "斯": 806,
      "方": 807,
      "日": 808,
      "旦": 809,
      "旭": 810,
      "昌": 811,
      "明": 812,
      "星": 813,
      "春": 814,
      "晋": 815,
      "景": 816,
      "曦": 817,
      "月": 818,
      "望": 819,
      "未": 820,
      "本": 821,
      "李": 822,
      "村": 823,
      "杜": 824,
      "束": 825,
      "来": 826,
      "林": 827,
      "桜": 828,
      "梶": 829,
      "棘": 830,
      "椎": 831,
      "楊": 832,
      "楚": 833,
      "榮": 834,
      "橘": 835,
      "機": 836,
      "正": 837,
      "殻": 838,
      "殿": 839,
      "母": 840,
      "水": 841,
      "汉": 842,
      "沂": 843,
      "沙": 844,
      "河": 845,
      "泗": 846,
      "波": 847,
      "泣": 848,
      "洪": 849,
      "淹": 850,
      "清": 851,
      "湯": 852,
      "漢": 853,
      "澄": 854,
      "澤": 855,
      "火": 856,
      "灯": 857,
      "灵": 858,
      "灼": 859,
      "焼": 860,
      "熱": 861,
      "物": 862,
      "狐": 863,
      "狸": 864,
      "玄": 865,
      "王": 866,
      "玩": 867,
      "珂": 868,
      "珙": 869,
      "球": 870,
      "理": 871,
      "琦": 872,
      "琪": 873,
      "瓊": 874,
      "生": 875,
      "田": 876,
      "畢": 877,
      "番": 878,
      "瘡": 879,
      "白": 880,
      "皮": 881,
      "真": 882,
      "砲": 883,
      "礮": 884,
      "祈": 885,
      "神": 886,
      "祠": 887,
      "秋": 888,
      "空": 889,
      "立": 890,
      "精": 891,
      "約": 892,
      "絵": 893,
      "織": 894,
      "義": 895,
      "翠": 896,
      "者": 897,
      "耕": 898,
      "肖": 899,
      "胡": 900,
      "膀": 901,
      "臂": 902,
      "興": 903,
      "良": 904,
      "花": 905,
      "芳": 906,
      "芽": 907,
      "若": 908,
      "英": 909,
      "藕": 910,
      "藥": 911,
      "蘄": 912,
      "蘇": 913,
      "行": 914,
      "裁": 915,
      "規": 916,
      "覺": 917,
      "观": 918,
      "解": 919,
      "記": 920,
      "誓": 921,
      "誡": 922,
      "誰": 923,
      "謎": 924,
      "许": 925,
      "谭": 926,
      "豪": 927,
      "豫": 928,
      "費": 929,
      "贵": 930,
      "赤": 931,
      "趙": 932,
      "足": 933,
      "跡": 934,
      "転": 935,
      "辛": 936,
      "逆": 937,
      "遇": 938,
      "運": 939,
      "過": 940,
      "遠": 941,
      "選": 942,
      "邦": 943,
      "邱": 944,
      "部": 945,
      "郭": 946,
      "都": 947,
      "酈": 948,
      "里": 949,
      "野": 950,
      "金": 951,
      "銃": 952,
      "鋼": 953,
      "錄": 954,
      "錡": 955,
      "鍵": 956,
      "鐵": 957,
      "钱": 958,
      "铁": 959,
      "關": 960,
      "防": 961,
      "阿": 962,
      "陈": 963,
      "陳": 964,
      "陽": 965,
      "隊": 966,
      "階": 967,
      "集": 968,
      "雪": 969,
      "雲": 970,
      "霖": 971,
      "霹": 972,
      "靂": 973,
      "韓": 974,
      "願": 975,
      "顯": 976,
      "颜": 977,
      "马": 978,
      "高": 979,
      "龍": 980,
      "대": 981,
      "독": 982,
      "립": 983,
      "병": 984,
      "보": 985,
      "부": 986,
      "연": 987,
      "제": 988,
      "ﷲ": 989,
      "ﻋ": 990,
      "﻿": 991,
      "／": 992,
      "３": 993,
      "～": 994,
      "�": 995,
      "th": 996,
      "in": 997,
      "er": 998,
      "an": 999,
      "the": 1000,
      "on": 1001,
      "ed": 1002,
      "re": 1003,
      "at": 1004,
      "en": 1005,
      "or": 1006,
      "st": 1007,
      "al": 1008,
      "ar": 1009,
      "as": 1010,
      "and": 1011,
      "of": 1012,
      "es": 1013,
      "ing": 1014,
      "is": 1015,
      "to": 1016,
      "it": 1017,
      "ou": 1018,
      "ic": 1019,
      "ion": 1020,
      "le": 1021,
      "ro": 1022,
      "he": 1023,
      "ac": 1024,
      "ent": 1025,
      "il": 1026,
      "se": 1027,
      "ad": 1028,
      "am": 1029,
      "om": 1030,
      "be": 1031,
      "ly": 1032,
      "ch": 1033,
      "for": 1034,
      "de": 1035,
      "ur": 1036,
      "was": 1037,
      "ve": 1038,
      "ol": 1039,
      "The": 1040,
      "ir": 1041,
      "im": 1042,
      "ig": 1043,
      "ow": 1044,
      "un": 1045,
      "ver": 1046,
      "wh": 1047,
      "-@": 1048,
      "@-@": 1049,
      "ay": 1050,
      "ter": 1051,
      "ith": 1052,
      "ce": 1053,
      "ation": 1054,
      "con": 1055,
      "that": 1056,
      "te": 1057,
      "us": 1058,
      "with": 1059,
      "ct": 1060,
      "ag": 1061,
      "id": 1062,
      "ot": 1063,
      "by": 1064,
      "ul": 1065,
      "el": 1066,
      "ap": 1067,
      "ere": 1068,
      "ri": 1069,
      "op": 1070,
      "um": 1071,
      "rom": 1072,
      "et": 1073,
      "res": 1074,
      "com": 1075,
      "pl": 1076,
      "ain": 1077,
      "ut": 1078,
      "19": 1079,
      "ers": 1080,
      "ab": 1081,
      "oun": 1082,
      "all": 1083,
      "mo": 1084,
      "his": 1085,
      "00": 1086,
      "ist": 1087,
      "su": 1088,
      "are": 1089,
      "ne": 1090,
      "pro": 1091,
      "sh": 1092,
      "pe": 1093,
      "from": 1094,
      "cl": 1095,
      "igh": 1096,
      "if": 1097,
      "ate": 1098,
      "tr": 1099,
      "In": 1100,
      "os": 1101,
      "art": 1102,
      "em": 1103,
      "ies": 1104,
      "ther": 1105,
      "ak": 1106,
      "ill": 1107,
      "ess": 1108,
      "od": 1109,
      "ex": 1110,
      "est": 1111,
      "ong": 1112,
      "iv": 1113,
      "were": 1114,
      "ant": 1115,
      "oc": 1116,
      "ld": 1117,
      "ard": 1118,
      "ive": 1119,
      "ich": 1120,
      "ast": 1121,
      "per": 1122,
      "ish": 1123,
      "qu": 1124,
      "out": 1125,
      "gh": 1126,
      "ber": 1127,
      "ort": 1128,
      "ity": 1129,
      "ated": 1130,
      "ame": 1131,
      "ment": 1132,
      "der": 1133,
      "man": 1134,
      "ud": 1135,
      "ight": 1136,
      "als": 1137,
      "one": 1138,
      "ack": 1139,
      "ear": 1140,
      "av": 1141,
      "ie": 1142,
      "end": 1143,
      "had": 1144,
      "our": 1145,
      "not": 1146,
      "tw": 1147,
      "ough": 1148,
      "over": 1149,
      "which": 1150,
      "af": 1151,
      "ge": 1152,
      "ound": 1153,
      "ave": 1154,
      "ass": 1155,
      "gr": 1156,
      "ip": 1157,
      "ine": 1158,
      "but": 1159,
      "cre": 1160,
      "ian": 1161,
      "ally": 1162,
      "act": 1163,
      "ord": 1164,
      "str": 1165,
      "rit": 1166,
      "Ch": 1167,
      "its": 1168,
      "up": 1169,
      "own": 1170,
      "fe": 1171,
      "ide": 1172,
      "ia": 1173,
      "du": 1174,
      "her": 1175,
      "ary": 1176,
      "fir": 1177,
      "comp": 1178,
      "sp": 1179,
      "ous": 1180,
      "br": 1181,
      "ore": 1182,
      "200": 1183,
      "bl": 1184,
      "ep": 1185,
      "ach": 1186,
      "St": 1187,
      "ll": 1188,
      "wor": 1189,
      "20": 1190,
      "land": 1191,
      "ould": 1192,
      "their": 1193,
      "ase": 1194,
      "ire": 1195,
      "pr": 1196,
      "po": 1197,
      "age": 1198,
      "tim": 1199,
      "first": 1200,
      "play": 1201,
      "bo": 1202,
      "ok": 1203,
      "me": 1204,
      "aw": 1205,
      "lo": 1206,
      "low": 1207,
      "ical": 1208,
      "sc": 1209,
      "ure": 1210,
      "ition": 1211,
      "int": 1212,
      "form": 1213,
      "au": 1214,
      "ser": 1215,
      "ial": 1216,
      "dis": 1217,
      "also": 1218,
      "ke": 1219,
      "ction": 1220,
      "ign": 1221,
      "port": 1222,
      "ater": 1223,
      "li": 1224,
      "ev": 1225,
      "has": 1226,
      "rec": 1227,
      "att": 1228,
      "other": 1229,
      "have": 1230,
      "He": 1231,
      "cont": 1232,
      "ind": 1233,
      "who": 1234,
      "pt": 1235,
      "ence": 1236,
      "18": 1237,
      "ome": 1238,
      "ile": 1239,
      "part": 1240,
      "gu": 1241,
      "ree": 1242,
      "been": 1243,
      "this": 1244,
      "pres": 1245,
      "two": 1246,
      "iz": 1247,
      "comm": 1248,
      "uring": 1249,
      "off": 1250,
      ".@": 1251,
      "@.@": 1252,
      "cent": 1253,
      "des": 1254,
      "ran": 1255,
      "ult": 1256,
      "Th": 1257,
      "It": 1258,
      "ade": 1259,
      "ved": 1260,
      "ell": 1261,
      "ite": 1262,
      "pos": 1263,
      "we": 1264,
      "they": 1265,
      "no": 1266,
      "able": 1267,
      "year": 1268,
      "ory": 1269,
      "after": 1270,
      "work": 1271,
      "og": 1272,
      "ations": 1273,
      "An": 1274,
      "ren": 1275,
      "ple": 1276,
      "201": 1277,
      "pre": 1278,
      "ever": 1279,
      "incl": 1280,
      "vel": 1281,
      "ark": 1282,
      "urn": 1283,
      "ue": 1284,
      "ice": 1285,
      "ans": 1286,
      "ph": 1287,
      "ake": 1288,
      "more": 1289,
      ",@": 1290,
      "@,@": 1291,
      "Un": 1292,
      "spe": 1293,
      "fer": 1294,
      "ace": 1295,
      "ra": 1296,
      "time": 1297,
      "ance": 1298,
      "min": 1299,
      "ens": 1300,
      "co": 1301,
      "ions": 1302,
      "mer": 1303,
      "old": 1304,
      "ood": 1305,
      "ib": 1306,
      "into": 1307,
      "ric": 1308,
      "under": 1309,
      "ces": 1310,
      "any": 1311,
      "inter": 1312,
      "ount": 1313,
      "most": 1314,
      "ship": 1315,
      "ced": 1316,
      "red": 1317,
      "tem": 1318,
      "fin": 1319,
      "she": 1320,
      "air": 1321,
      "ings": 1322,
      "ang": 1323,
      "used": 1324,
      "would": 1325,
      "cond": 1326,
      "fl": 1327,
      "main": 1328,
      "row": 1329,
      "ath": 1330,
      "ann": 1331,
      "him": 1332,
      "way": 1333,
      "ased": 1334,
      "cted": 1335,
      "fore": 1336,
      "ied": 1337,
      "ail": 1338,
      "ason": 1339,
      "vers": 1340,
      "ose": 1341,
      "mon": 1342,
      "ited": 1343,
      "ane": 1344,
      "cess": 1345,
      "set": 1346,
      "ix": 1347,
      "bec": 1348,
      "ious": 1349,
      "ates": 1350,
      "can": 1351,
      "includ": 1352,
      "though": 1353,
      "Al": 1354,
      "ust": 1355,
      "ick": 1356,
      "ents": 1357,
      "ew": 1358,
      "ict": 1359,
      "rough": 1360,
      "new": 1361,
      "vol": 1362,
      "when": 1363,
      "bu": 1364,
      "only": 1365,
      "io": 1366,
      "Ar": 1367,
      "ry": 1368,
      "arch": 1369,
      "day": 1370,
      "do": 1371,
      "song": 1372,
      "ful": 1373,
      "ob": 1374,
      "ild": 1375,
      "them": 1376,
      "gan": 1377,
      "kn": 1378,
      "during": 1379,
      "reg": 1380,
      "iss": 1381,
      "gen": 1382,
      "les": 1383,
      "ubl": 1384,
      "ors": 1385,
      "ten": 1386,
      "col": 1387,
      "about": 1388,
      "En": 1389,
      "ret": 1390,
      "Wh": 1391,
      "game": 1392,
      "een": 1393,
      "Au": 1394,
      "sy": 1395,
      "again": 1396,
      "rel": 1397,
      "son": 1398,
      "than": 1399,
      "ty": 1400,
      "ilm": 1401,
      "vis": 1402,
      "ward": 1403,
      "amp": 1404,
      "ness": 1405,
      "ollow": 1406,
      "while": 1407,
      "lar": 1408,
      "nor": 1409,
      "so": 1410,
      "you": 1411,
      "some": 1412,
      "my": 1413,
      "season": 1414,
      "writ": 1415,
      "oy": 1416,
      "ted": 1417,
      "As": 1418,
      "tween": 1419,
      "three": 1420,
      "between": 1421,
      "char": 1422,
      "cr": 1423,
      "stru": 1424,
      "ern": 1425,
      "On": 1426,
      "dr": 1427,
      "through": 1428,
      "199": 1429,
      "ific": 1430,
      "spec": 1431,
      "ts": 1432,
      "ational": 1433,
      "ular": 1434,
      "outh": 1435,
      "record": 1436,
      "num": 1437,
      "produ": 1438,
      "ating": 1439,
      "open": 1440,
      "led": 1441,
      "vie": 1442,
      "Com": 1443,
      "where": 1444,
      "ron": 1445,
      "ton": 1446,
      "later": 1447,
      "cons": 1448,
      "ins": 1449,
      "ck": 1450,
      "back": 1451,
      "cap": 1452,
      "hel": 1453,
      "ele": 1454,
      "ished": 1455,
      "10": 1456,
      "rele": 1457,
      "film": 1458,
      "go": 1459,
      "Af": 1460,
      "ames": 1461,
      "then": 1462,
      "ma": 1463,
      "ef": 1464,
      "sub": 1465,
      "made": 1466,
      "ume": 1467,
      "ode": 1468,
      "aid": 1469,
      "ury": 1470,
      "New": 1471,
      "sel": 1472,
      "mus": 1473,
      "cur": 1474,
      "high": 1475,
      "down": 1476,
      "ning": 1477,
      "now": 1478,
      "ock": 1479,
      "meric": 1480,
      "Americ": 1481,
      "sing": 1482,
      "ual": 1483,
      "ters": 1484,
      "appe": 1485,
      "view": 1486,
      "Sh": 1487,
      "bum": 1488,
      "call": 1489,
      "well": 1490,
      "ub": 1491,
      "000": 1492,
      "follow": 1493,
      "second": 1494,
      "med": 1495,
      "such": 1496,
      "Le": 1497,
      "Re": 1498,
      "four": 1499,
      "je": 1500,
      "Jo": 1501,
      "This": 1502,
      "ered": 1503,
      "publ": 1504,
      "No": 1505,
      "cord": 1506,
      "ven": 1507,
      "before": 1508,
      "rop": 1509,
      "16": 1510,
      "ily": 1511,
      "..": 1512,
      "sup": 1513,
      "like": 1514,
      "iel": 1515,
      "use": 1516,
      "At": 1517,
      "album": 1518,
      "De": 1519,
      "ause": 1520,
      "ative": 1521,
      "there": 1522,
      "point": 1523,
      "Br": 1524,
      "being": 1525,
      "rib": 1526,
      "urch": 1527,
      "sur": 1528,
      "ars": 1529,
      "ics": 1530,
      "add": 1531,
      "12": 1532,
      "owever": 1533,
      "Eng": 1534,
      "15": 1535,
      "arri": 1536,
      "par": 1537,
      "reat": 1538,
      "ities": 1539,
      "many": 1540,
      "known": 1541,
      "years": 1542,
      "found": 1543,
      "long": 1544,
      "17": 1545,
      "ale": 1546,
      "ros": 1547,
      "velop": 1548,
      "loc": 1549,
      "number": 1550,
      "line": 1551,
      "unt": 1552,
      "both": 1553,
      "series": 1554,
      "please": 1555,
      "ird": 1556,
      "Nor": 1557,
      "ived": 1558,
      "ise": 1559,
      "ments": 1560,
      "ince": 1561,
      "mber": 1562,
      "olog": 1563,
      "ines": 1564,
      "sever": 1565,
      "team": 1566,
      "ek": 1567,
      "cho": 1568,
      "atch": 1569,
      "eng": 1570,
      "ife": 1571,
      "tain": 1572,
      "ond": 1573,
      "pop": 1574,
      "desc": 1575,
      "epis": 1576,
      "including": 1577,
      "volume": 1578,
      "comple": 1579,
      "became": 1580,
      "hn": 1581,
      "against": 1582,
      "igin": 1583,
      "Brit": 1584,
      "dire": 1585,
      "ped": 1586,
      "ress": 1587,
      "side": 1588,
      "feat": 1589,
      "cle": 1590,
      "suc": 1591,
      "charac": 1592,
      "uary": 1593,
      "stud": 1594,
      "ident": 1595,
      "fo": 1596,
      "uch": 1597,
      "develop": 1598,
      "Con": 1599,
      "iet": 1600,
      "mem": 1601,
      "creen": 1602,
      "ft": 1603,
      "dif": 1604,
      "cer": 1605,
      "show": 1606,
      "Be": 1607,
      "appear": 1608,
      "II": 1609,
      "head": 1610,
      "oper": 1611,
      "peri": 1612,
      "contin": 1613,
      "198": 1614,
      "ost": 1615,
      "bright": 1616,
      "ised": 1617,
      "30": 1618,
      "lan": 1619,
      "ures": 1620,
      "vide": 1621,
      "rece": 1622,
      "ield": 1623,
      "dec": 1624,
      "United": 1625,
      "Ro": 1626,
      "start": 1627,
      "John": 1628,
      "ci": 1629,
      "stor": 1630,
      "run": 1631,
      "serv": 1632,
      "ste": 1633,
      "ized": 1634,
      "Mar": 1635,
      "ually": 1636,
      "origin": 1637,
      "century": 1638,
      "did": 1639,
      "mill": 1640,
      "After": 1641,
      "lead": 1642,
      "az": 1643,
      "ley": 1644,
      "pol": 1645,
      "stem": 1646,
      "ru": 1647,
      "sm": 1648,
      "ting": 1649,
      "sign": 1650,
      "west": 1651,
      "dam": 1652,
      "arm": 1653,
      "several": 1654,
      "Can": 1655,
      "194": 1656,
      "bel": 1657,
      "may": 1658,
      "read": 1659,
      "ject": 1660,
      "road": 1661,
      "eral": 1662,
      "oup": 1663,
      "began": 1664,
      "present": 1665,
      "ended": 1666,
      "fect": 1667,
      "hy": 1668,
      "hist": 1669,
      "music": 1670,
      "near": 1671,
      "ball": 1672,
      "could": 1673,
      "ash": 1674,
      "orn": 1675,
      "ons": 1676,
      "remain": 1677,
      "early": 1678,
      "aking": 1679,
      "She": 1680,
      "need": 1681,
      "incre": 1682,
      "cy": 1683,
      "called": 1684,
      "196": 1685,
      "success": 1686,
      "dist": 1687,
      "met": 1688,
      "xt": 1689,
      "crit": 1690,
      "try": 1691,
      "por": 1692,
      "said": 1693,
      "ute": 1694,
      "ision": 1695,
      "197": 1696,
      "ople": 1697,
      "une": 1698,
      "press": 1699,
      "la": 1700,
      "self": 1701,
      "episode": 1702,
      "nam": 1703,
      "Is": 1704,
      "cover": 1705,
      "ank": 1706,
      "gg": 1707,
      "along": 1708,
      "what": 1709,
      "val": 1710,
      "large": 1711,
      "pass": 1712,
      "dep": 1713,
      "just": 1714,
      "Wor": 1715,
      "brightness": 1716,
      "ble": 1717,
      "May": 1718,
      "ower": 1719,
      "Se": 1720,
      "mil": 1721,
      "these": 1722,
      "top": 1723,
      "design": 1724,
      "For": 1725,
      "less": 1726,
      "requ": 1727,
      "ink": 1728,
      "until": 1729,
      "American": 1730,
      "13": 1731,
      "contro": 1732,
      "gust": 1733,
      "tow": 1734,
      "ese": 1735,
      "prev": 1736,
      "sim": 1737,
      "ah": 1738,
      "trans": 1739,
      "describ": 1740,
      "stand": 1741,
      "ca": 1742,
      "leg": 1743,
      "pers": 1744,
      "ible": 1745,
      "Gr": 1746,
      "same": 1747,
      "let": 1748,
      "Ger": 1749,
      "fam": 1750,
      "ross": 1751,
      "city": 1752,
      "ier": 1753,
      "var": 1754,
      "cept": 1755,
      "released": 1756,
      "14": 1757,
      "50": 1758,
      "state": 1759,
      "rist": 1760,
      "British": 1761,
      "ists": 1762,
      "formed": 1763,
      "light": 1764,
      "war": 1765,
      "plac": 1766,
      "return": 1767,
      "men": 1768,
      "order": 1769,
      "area": 1770,
      "thern": 1771,
      "will": 1772,
      "km": 1773,
      "They": 1774,
      "iver": 1775,
      "che": 1776,
      "million": 1777,
      "come": 1778,
      "Car": 1779,
      "ouse": 1780,
      "because": 1781,
      "each": 1782,
      "fic": 1783,
      "field": 1784,
      "ided": 1785,
      "ium": 1786,
      "fire": 1787,
      "ask": 1788,
      "app": 1789,
      "people": 1790,
      "five": 1791,
      "overn": 1792,
      "support": 1793,
      "screen": 1794,
      "fun": 1795,
      "grap": 1796,
      "offic": 1797,
      "coun": 1798,
      "jor": 1799,
      "six": 1800,
      "Sep": 1801,
      "ather": 1802,
      "August": 1803,
      "ured": 1804,
      "around": 1805,
      "east": 1806,
      "ivers": 1807,
      "car": 1808,
      "ms": 1809,
      "ves": 1810,
      "chool": 1811,
      "book": 1812,
      "bod": 1813,
      "oth": 1814,
      "enn": 1815,
      "ey": 1816,
      "class": 1817,
      "ext": 1818,
      "get": 1819,
      "system": 1820,
      "continu": 1821,
      "want": 1822,
      "small": 1823,
      "very": 1824,
      "cut": 1825,
      "national": 1826,
      "stral": 1827,
      "However": 1828,
      "atter": 1829,
      "rote": 1830,
      "mark": 1831,
      "prote": 1832,
      "Ju": 1833,
      "consid": 1834,
      "group": 1835,
      "War": 1836,
      "north": 1837,
      "All": 1838,
      "Col": 1839,
      "tle": 1840,
      "tri": 1841,
      "character": 1842,
      "attack": 1843,
      "tember": 1844,
      "September": 1845,
      "Eu": 1846,
      "miss": 1847,
      "ales": 1848,
      "late": 1849,
      "ural": 1850,
      "allow": 1851,
      "win": 1852,
      "following": 1853,
      "last": 1854,
      "lish": 1855,
      "dom": 1856,
      "rest": 1857,
      "tit": 1858,
      "Austral": 1859,
      "lit": 1860,
      "result": 1861,
      "track": 1862,
      "rome": 1863,
      "aim": 1864,
      "gy": 1865,
      "ired": 1866,
      "name": 1867,
      "command": 1868,
      "ris": 1869,
      "life": 1870,
      "ional": 1871,
      "Her": 1872,
      "count": 1873,
      "cording": 1874,
      "aving": 1875,
      "bre": 1876,
      "bers": 1877,
      "position": 1878,
      "report": 1879,
      "ilt": 1880,
      "aged": 1881,
      "video": 1882,
      "ately": 1883,
      "cour": 1884,
      "week": 1885,
      "ctor": 1886,
      "US": 1887,
      "Bl": 1888,
      "tal": 1889,
      "Gu": 1890,
      "ae": 1891,
      "played": 1892,
      "gun": 1893,
      "11": 1894,
      "def": 1895,
      "World": 1896,
      "prom": 1897,
      "ages": 1898,
      "North": 1899,
      "Fran": 1900,
      "ony": 1901,
      "ague": 1902,
      "resp": 1903,
      "received": 1904,
      "even": 1905,
      "jane": 1906,
      "list": 1907,
      "ys": 1908,
      "ime": 1909,
      "appro": 1910,
      "ility": 1911,
      "oman": 1912,
      "build": 1913,
      "won": 1914,
      "final": 1915,
      "public": 1916,
      "make": 1917,
      "June": 1918,
      "hand": 1919,
      "adv": 1920,
      "ained": 1921,
      "poss": 1922,
      "Cl": 1923,
      "gre": 1924,
      "sk": 1925,
      "ined": 1926,
      "25": 1927,
      "Oc": 1928,
      "reach": 1929,
      "ism": 1930,
      "overnment": 1931,
      "since": 1932,
      "major": 1933,
      "cast": 1934,
      "0s": 1935,
      "States": 1936,
      "world": 1937,
      "south": 1938,
      "much": 1939,
      "Jan": 1940,
      "organ": 1941,
      "took": 1942,
      "partic": 1943,
      "oss": 1944,
      "Man": 1945,
      "ify": 1946,
      "inc": 1947,
      "Ac": 1948,
      "gin": 1949,
      "power": 1950,
      "pri": 1951,
      "ude": 1952,
      "child": 1953,
      "aud": 1954,
      "ham": 1955,
      "batt": 1956,
      "ling": 1957,
      "star": 1958,
      "ivision": 1959,
      "South": 1960,
      "giv": 1961,
      "hum": 1962,
      "close": 1963,
      "Christ": 1964,
      "described": 1965,
      "named": 1966,
      "water": 1967,
      "Mon": 1968,
      "ains": 1969,
      "thing": 1970,
      "place": 1971,
      "moved": 1972,
      "right": 1973,
      "King": 1974,
      "town": 1975,
      "ground": 1976,
      "Pl": 1977,
      "short": 1978,
      "species": 1979,
      "Sp": 1980,
      "ina": 1981,
      "tober": 1982,
      "October": 1983,
      "band": 1984,
      "ork": 1985,
      "ards": 1986,
      "action": 1987,
      "Par": 1988,
      "built": 1989,
      "fur": 1990,
      "level": 1991,
      "itch": 1992,
      "constru": 1993,
      "wards": 1994,
      "differ": 1995,
      "sequ": 1996,
      "wrote": 1997,
      "expl": 1998,
      "using": 1999,
      "care": 2000,
      "iam": 2001,
      "soc": 2002,
      "ently": 2003,
      "prov": 2004,
      "ery": 2005,
      "pen": 2006,
      "July": 2007,
      "chan": 2008,
      "aur": 2009,
      "During": 2010,
      "ored": 2011,
      "ically": 2012,
      "Ind": 2013,
      "due": 2014,
      "Fe": 2015,
      "York": 2016,
      "ians": 2017,
      "gram": 2018,
      "unch": 2019,
      "ats": 2020,
      "event": 2021,
      "turn": 2022,
      "camp": 2023,
      "ement": 2024,
      "akes": 2025,
      "indu": 2026,
      "ets": 2027,
      "sound": 2028,
      "another": 2029,
      "user": 2030,
      "ides": 2031,
      "previous": 2032,
      "ital": 2033,
      "gener": 2034,
      "West": 2035,
      "single": 2036,
      "ropical": 2037,
      "ai": 2038,
      "hal": 2039,
      "aft": 2040,
      "tempt": 2041,
      "...": 2042,
      "Apr": 2043,
      "April": 2044,
      "shot": 2045,
      "ize": 2046,
      "ner": 2047,
      "included": 2048,
      "pect": 2049,
      "Sc": 2050,
      "ature": 2051,
      "Ad": 2052,
      "death": 2053,
      "ships": 2054,
      "German": 2055,
      "ove": 2056,
      "wind": 2057,
      "within": 2058,
      "estab": 2059,
      "based": 2060,
      "rown": 2061,
      "Mc": 2062,
      "cas": 2063,
      "ator": 2064,
      "ified": 2065,
      "issu": 2066,
      "left": 2067,
      "Euro": 2068,
      "fall": 2069,
      "sent": 2070,
      "ax": 2071,
      "January": 2072,
      "ially": 2073,
      "although": 2074,
      "best": 2075,
      "ving": 2076,
      "claim": 2077,
      "England": 2078,
      "belie": 2079,
      "attempt": 2080,
      "195": 2081,
      "ants": 2082,
      "Ste": 2083,
      "sol": 2084,
      "games": 2085,
      "home": 2086,
      "que": 2087,
      "third": 2088,
      "dest": 2089,
      "family": 2090,
      "March": 2091,
      "mi": 2092,
      "ences": 2093,
      "story": 2094,
      "By": 2095,
      "ilar": 2096,
      "When": 2097,
      "ulation": 2098,
      "ives": 2099,
      "school": 2100,
      "roy": 2101,
      "review": 2102,
      "Nove": 2103,
      "His": 2104,
      "too": 2105,
      "chrome": 2106,
      "November": 2107,
      "control": 2108,
      "kill": 2109,
      "period": 2110,
      "bro": 2111,
      "ref": 2112,
      "government": 2113,
      "say": 2114,
      "help": 2115,
      "jo": 2116,
      "king": 2117,
      "mar": 2118,
      "real": 2119,
      "ush": 2120,
      "193": 2121,
      "put": 2122,
      "those": 2123,
      "ster": 2124,
      "den": 2125,
      "storm": 2126,
      "There": 2127,
      "person": 2128,
      "Europe": 2129,
      "Pr": 2130,
      "And": 2131,
      "Dece": 2132,
      "fort": 2133,
      "flu": 2134,
      "original": 2135,
      "ler": 2136,
      "avy": 2137,
      "December": 2138,
      "bar": 2139,
      "match": 2140,
      "ought": 2141,
      "vision": 2142,
      "ral": 2143,
      "company": 2144,
      "month": 2145,
      "Ge": 2146,
      "und": 2147,
      "Bo": 2148,
      "Ph": 2149,
      "fac": 2150,
      "import": 2151,
      "auth": 2152,
      "We": 2153,
      "rench": 2154,
      "capt": 2155,
      "ger": 2156,
      "trad": 2157,
      "ston": 2158,
      "ends": 2159,
      "chang": 2160,
      "stit": 2161,
      "ops": 2162,
      "itary": 2163,
      "take": 2164,
      "iversity": 2165,
      "still": 2166,
      "Tr": 2167,
      "club": 2168,
      "City": 2169,
      "move": 2170,
      "next": 2171,
      "Me": 2172,
      "24": 2173,
      "every": 2174,
      "fox": 2175,
      "role": 2176,
      "colle": 2177,
      "National": 2178,
      "lim": 2179,
      "church": 2180,
      "player": 2181,
      "clear": 2182,
      "26": 2183,
      "Co": 2184,
      "ament": 2185,
      "vo": 2186,
      "commun": 2187,
      "mag": 2188,
      "mid": 2189,
      "2009": 2190,
      "2010": 2191,
      "fact": 2192,
      "aken": 2193,
      "ensive": 2194,
      "ged": 2195,
      "often": 2196,
      "sport": 2197,
      "21": 2198,
      "28": 2199,
      "local": 2200,
      "ring": 2201,
      "iation": 2202,
      "River": 2203,
      "idge": 2204,
      "addition": 2205,
      "100": 2206,
      "Te": 2207,
      "came": 2208,
      "site": 2209,
      "2008": 2210,
      "half": 2211,
      "Dy": 2212,
      "Or": 2213,
      "without": 2214,
      "former": 2215,
      "urric": 2216,
      "ggest": 2217,
      "23": 2218,
      "Bar": 2219,
      "fri": 2220,
      "draw": 2221,
      "imes": 2222,
      "Pe": 2223,
      "vent": 2224,
      "ending": 2225,
      "One": 2226,
      "suggest": 2227,
      "continued": 2228,
      "ution": 2229,
      "init": 2230,
      "body": 2231,
      "how": 2232,
      "sou": 2233,
      "refer": 2234,
      "quar": 2235,
      "ense": 2236,
      "effect": 2237,
      "ript": 2238,
      "considered": 2239,
      "house": 2240,
      "sit": 2241,
      "asing": 2242,
      "forman": 2243,
      "ik": 2244,
      "mb": 2245,
      "tract": 2246,
      "ov": 2247,
      "version": 2248,
      "round": 2249,
      "similar": 2250,
      "placed": 2251,
      "different": 2252,
      "elt": 2253,
      "Gen": 2254,
      "word": 2255,
      "few": 2256,
      "recorded": 2257,
      "mp": 2258,
      "bert": 2259,
      "gl": 2260,
      "Ex": 2261,
      "Per": 2262,
      "seven": 2263,
      "published": 2264,
      "held": 2265,
      "mand": 2266,
      "2007": 2267,
      "Pro": 2268,
      "French": 2269,
      "English": 2270,
      "ls": 2271,
      "successful": 2272,
      "aining": 2273,
      "sl": 2274,
      "sold": 2275,
      "ico": 2276,
      "posed": 2277,
      "aster": 2278,
      "further": 2279,
      "cor": 2280,
      "plic": 2281,
      "stead": 2282,
      "songs": 2283,
      "look": 2284,
      "Min": 2285,
      "production": 2286,
      "strong": 2287,
      "uc": 2288,
      "should": 2289,
      "lor": 2290,
      "rem": 2291,
      "ribut": 2292,
      "stri": 2293,
      "test": 2294,
      "assist": 2295,
      "written": 2296,
      "graph": 2297,
      "wood": 2298,
      "With": 2299,
      "among": 2300,
      "force": 2301,
      "performan": 2302,
      "polit": 2303,
      "27": 2304,
      "search": 2305,
      "struct": 2306,
      "ailed": 2307,
      "days": 2308,
      "Will": 2309,
      "fr": 2310,
      "complete": 2311,
      "Inter": 2312,
      "exam": 2313,
      "find": 2314,
      "night": 2315,
      "sty": 2316,
      "augh": 2317,
      "white": 2318,
      "program": 2319,
      "become": 2320,
      "tele": 2321,
      "22": 2322,
      "wide": 2323,
      "ali": 2324,
      "net": 2325,
      "oung": 2326,
      "urricane": 2327,
      "xim": 2328,
      "times": 2329,
      "You": 2330,
      "bird": 2331,
      "ford": 2332,
      "iment": 2333,
      "prof": 2334,
      "ampion": 2335,
      "change": 2336,
      "great": 2337,
      "tropical": 2338,
      "tell": 2339,
      "history": 2340,
      "According": 2341,
      "itar": 2342,
      "Although": 2343,
      "bit": 2344,
      "author": 2345,
      "Batt": 2346,
      "however": 2347,
      "foot": 2348,
      "went": 2349,
      "enter": 2350,
      "hold": 2351,
      "board": 2352,
      "State": 2353,
      "particular": 2354,
      "Division": 2355,
      "ology": 2356,
      "sure": 2357,
      "rent": 2358,
      "2011": 2359,
      "uss": 2360,
      "itions": 2361,
      "title": 2362,
      "pite": 2363,
      "see": 2364,
      "histor": 2365,
      "2006": 2366,
      "percent": 2367,
      "spot": 2368,
      "scen": 2369,
      "gar": 2370,
      "Church": 2371,
      "common": 2372,
      "craft": 2373,
      "members": 2374,
      "fan": 2375,
      "ively": 2376,
      "military": 2377,
      "Ser": 2378,
      "clos": 2379,
      "release": 2380,
      "Li": 2381,
      "ff": 2382,
      "Port": 2383,
      "chn": 2384,
      "Roman": 2385,
      "liv": 2386,
      "full": 2387,
      "omin": 2388,
      "Canad": 2389,
      "na": 2390,
      "room": 2391,
      "manag": 2392,
      "away": 2393,
      "lost": 2394,
      "oute": 2395,
      "moder": 2396,
      "Char": 2397,
      "My": 2398,
      "ient": 2399,
      "gave": 2400,
      "key": 2401,
      "To": 2402,
      "atic": 2403,
      "post": 2404,
      "produced": 2405,
      "reported": 2406,
      "good": 2407,
      "popular": 2408,
      "ices": 2409,
      "ope": 2410,
      "bruary": 2411,
      "February": 2412,
      "Dylan": 2413,
      "fron": 2414,
      "ared": 2415,
      "served": 2416,
      "ctions": 2417,
      "Miss": 2418,
      "flo": 2419,
      "total": 2420,
      "cult": 2421,
      "invol": 2422,
      "Mus": 2423,
      "bur": 2424,
      "div": 2425,
      "human": 2426,
      "Geor": 2427,
      "ister": 2428,
      "stre": 2429,
      "els": 2430,
      "activ": 2431,
      "given": 2432,
      "important": 2433,
      "bas": 2434,
      "rad": 2435,
      "iety": 2436,
      "Song": 2437,
      "ges": 2438,
      "having": 2439,
      "decl": 2440,
      "League": 2441,
      "ior": 2442,
      "omet": 2443,
      "ogn": 2444,
      "sch": 2445,
      "represent": 2446,
      "meet": 2447,
      "ney": 2448,
      "children": 2449,
      "Mo": 2450,
      "Park": 2451,
      "face": 2452,
      "seen": 2453,
      "apan": 2454,
      "career": 2455,
      "Pol": 2456,
      "stated": 2457,
      "ably": 2458,
      "Comp": 2459,
      "making": 2460,
      "vict": 2461,
      "tour": 2462,
      "ama": 2463,
      "direct": 2464,
      "Old": 2465,
      "mor": 2466,
      "forces": 2467,
      "signific": 2468,
      "comb": 2469,
      "project": 2470,
      "mit": 2471,
      "plan": 2472,
      "2012": 2473,
      "include": 2474,
      "critic": 2475,
      "pur": 2476,
      "omen": 2477,
      "Ha": 2478,
      "Japan": 2479,
      "Har": 2480,
      "equ": 2481,
      "hour": 2482,
      "compet": 2483,
      "influ": 2484,
      "ances": 2485,
      "never": 2486,
      "exp": 2487,
      "ways": 2488,
      "29": 2489,
      "Ne": 2490,
      "country": 2491,
      "ument": 2492,
      "ploy": 2493,
      "Afric": 2494,
      "cial": 2495,
      "rap": 2496,
      "occur": 2497,
      "ned": 2498,
      "beh": 2499,
      "Ear": 2500,
      "intro": 2501,
      "novel": 2502,
      "works": 2503,
      "antic": 2504,
      "launch": 2505,
      "Ed": 2506,
      "Sim": 2507,
      "stood": 2508,
      "While": 2509,
      "Count": 2510,
      "fem": 2511,
      "mm": 2512,
      "ps": 2513,
      "Tw": 2514,
      "40": 2515,
      "BC": 2516,
      "cell": 2517,
      "lished": 2518,
      "eder": 2519,
      "depend": 2520,
      "developed": 2521,
      "returned": 2522,
      "ks": 2523,
      "created": 2524,
      "Dav": 2525,
      "father": 2526,
      "tro": 2527,
      "coming": 2528,
      "dri": 2529,
      "ones": 2530,
      "aren": 2531,
      "performed": 2532,
      "University": 2533,
      "established": 2534,
      "2013": 2535,
      "population": 2536,
      "Scot": 2537,
      "earli": 2538,
      "compos": 2539,
      "lands": 2540,
      "writing": 2541,
      "General": 2542,
      "free": 2543,
      "law": 2544,
      "chart": 2545,
      "ither": 2546,
      "announ": 2547,
      "god": 2548,
      "across": 2549,
      "opened": 2550,
      "construction": 2551,
      "introdu": 2552,
      "bor": 2553,
      "teen": 2554,
      "These": 2555,
      "Cor": 2556,
      "stant": 2557,
      "alion": 2558,
      "sw": 2559,
      "noted": 2560,
      "thought": 2561,
      "throughout": 2562,
      "America": 2563,
      "reached": 2564,
      "know": 2565,
      "range": 2566,
      "Su": 2567,
      "experi": 2568,
      "190": 2569,
      "typ": 2570,
      "opening": 2571,
      "building": 2572,
      "Ire": 2573,
      "ades": 2574,
      "del": 2575,
      "agre": 2576,
      "significant": 2577,
      "igade": 2578,
      "ondon": 2579,
      "others": 2580,
      "Ma": 2581,
      "vi": 2582,
      "development": 2583,
      "Air": 2584,
      "events": 2585,
      "little": 2586,
      "Ireland": 2587,
      "di": 2588,
      "eight": 2589,
      "felt": 2590,
      "vir": 2591,
      "idence": 2592,
      "process": 2593,
      "London": 2594,
      "hip": 2595,
      "techn": 2596,
      "aver": 2597,
      "fif": 2598,
      "itive": 2599,
      "fig": 2600,
      "ality": 2601,
      "appoint": 2602,
      "aint": 2603,
      "interest": 2604,
      "himself": 2605,
      "William": 2606,
      "Jack": 2607,
      "tar": 2608,
      "ull": 2609,
      "tran": 2610,
      "aff": 2611,
      "black": 2612,
      "iness": 2613,
      "Cap": 2614,
      "Wal": 2615,
      "termin": 2616,
      "recogn": 2617,
      "Ber": 2618,
      "does": 2619,
      "increase": 2620,
      "front": 2621,
      "East": 2622,
      "bus": 2623,
      "covered": 2624,
      "Des": 2625,
      "Mich": 2626,
      "burn": 2627,
      "nu": 2628,
      "gether": 2629,
      "miles": 2630,
      "various": 2631,
      "started": 2632,
      "60": 2633,
      "gest": 2634,
      "conne": 2635,
      "firefox": 2636,
      "modern": 2637,
      "vert": 2638,
      "ief": 2639,
      "disc": 2640,
      "appeared": 2641,
      "destroy": 2642,
      "fle": 2643,
      "television": 2644,
      "cing": 2645,
      "sum": 2646,
      "acy": 2647,
      "Australia": 2648,
      "audio": 2649,
      "nd": 2650,
      "text": 2651,
      "ivil": 2652,
      "formation": 2653,
      "abor": 2654,
      "areas": 2655,
      "prim": 2656,
      "ready": 2657,
      "Mag": 2658,
      "ising": 2659,
      "bet": 2660,
      "relation": 2661,
      "Rich": 2662,
      "died": 2663,
      "omb": 2664,
      "cil": 2665,
      "rock": 2666,
      "suf": 2667,
      "display": 2668,
      "Roy": 2669,
      "aul": 2670,
      "ug": 2671,
      "pra": 2672,
      "mission": 2673,
      "Black": 2674,
      "Pal": 2675,
      "alth": 2676,
      "amb": 2677,
      "aves": 2678,
      "ization": 2679,
      "Reg": 2680,
      "TV": 2681,
      "Atl": 2682,
      "ago": 2683,
      "ability": 2684,
      "arried": 2685,
      "ological": 2686,
      "cul": 2687,
      "grad": 2688,
      "feet": 2689,
      "Sy": 2690,
      "sex": 2691,
      "players": 2692,
      "understood": 2693,
      "High": 2694,
      "grow": 2695,
      "vill": 2696,
      "poem": 2697,
      "mix": 2698,
      "ination": 2699,
      "style": 2700,
      "mun": 2701,
      "your": 2702,
      "ison": 2703,
      "Mount": 2704,
      "har": 2705,
      "trave": 2706,
      "caused": 2707,
      "James": 2708,
      "nal": 2709,
      "aign": 2710,
      "ox": 2711,
      "da": 2712,
      "aly": 2713,
      "iting": 2714,
      "pred": 2715,
      "current": 2716,
      "Road": 2717,
      "ked": 2718,
      "live": 2719,
      "performance": 2720,
      "taken": 2721,
      "young": 2722,
      "ung": 2723,
      "uses": 2724,
      "Po": 2725,
      "mount": 2726,
      "lear": 2727,
      "coast": 2728,
      "member": 2729,
      "oot": 2730,
      "tra": 2731,
      "script": 2732,
      "lect": 2733,
      "ficult": 2734,
      "born": 2735,
      "ze": 2736,
      "once": 2737,
      "proble": 2738,
      "scode": 2739,
      "ino": 2740,
      "rew": 2741,
      "itor": 2742,
      "ival": 2743,
      "189": 2744,
      "relig": 2745,
      "political": 2746,
      "Ham": 2747,
      "Sw": 2748,
      "inv": 2749,
      "begin": 2750,
      "completed": 2751,
      "cir": 2752,
      "Open": 2753,
      "fav": 2754,
      "peak": 2755,
      "exist": 2756,
      "Wil": 2757,
      "ana": 2758,
      "Mont": 2759,
      "La": 2760,
      "squ": 2761,
      "ioned": 2762,
      "mother": 2763,
      "difficult": 2764,
      "date": 2765,
      "fight": 2766,
      "ues": 2767,
      "instead": 2768,
      "theast": 2769,
      "osaur": 2770,
      "Sci": 2771,
      "cop": 2772,
      "nat": 2773,
      "stone": 2774,
      "ara": 2775,
      "2004": 2776,
      "discord": 2777,
      "characters": 2778,
      "ael": 2779,
      "entire": 2780,
      "lower": 2781,
      "lines": 2782,
      "nia": 2783,
      "playing": 2784,
      "County": 2785,
      "uck": 2786,
      "surv": 2787,
      "yard": 2788,
      "ened": 2789,
      "ories": 2790,
      "together": 2791,
      "arded": 2792,
      "langu": 2793,
      "Ab": 2794,
      "cause": 2795,
      "rain": 2796,
      "anim": 2797,
      "2005": 2798,
      "located": 2799,
      "remained": 2800,
      "battle": 2801,
      "Som": 2802,
      "Mor": 2803,
      "urb": 2804,
      "ivid": 2805,
      "medi": 2806,
      "tradition": 2807,
      "Some": 2808,
      "cou": 2809,
      "rul": 2810,
      "ata": 2811,
      "debut": 2812,
      "scored": 2813,
      "ification": 2814,
      "finished": 2815,
      "region": 2816,
      "goal": 2817,
      "announced": 2818,
      "host": 2819,
      "iers": 2820,
      "era": 2821,
      "redu": 2822,
      "possible": 2823,
      "Town": 2824,
      "ique": 2825,
      "stars": 2826,
      "ille": 2827,
      "tempor": 2828,
      "added": 2829,
      "Ke": 2830,
      "Australian": 2831,
      "break": 2832,
      "guns": 2833,
      "Ev": 2834,
      "pression": 2835,
      "ience": 2836,
      "mot": 2837,
      "enced": 2838,
      "regular": 2839,
      "Grand": 2840,
      "mean": 2841,
      "elect": 2842,
      "far": 2843,
      "decre": 2844,
      "vest": 2845,
      "special": 2846,
      "Kingdom": 2847,
      "comment": 2848,
      "pair": 2849,
      "stop": 2850,
      "consist": 2851,
      "Sun": 2852,
      "followed": 2853,
      "study": 2854,
      "campaign": 2855,
      "Bill": 2856,
      "names": 2857,
      "least": 2858,
      "quick": 2859,
      "killed": 2860,
      "Feder": 2861,
      "got": 2862,
      "stat": 2863,
      "island": 2864,
      "Ang": 2865,
      "broad": 2866,
      "mass": 2867,
      "non": 2868,
      "general": 2869,
      "originally": 2870,
      "months": 2871,
      "southern": 2872,
      "Company": 2873,
      "iated": 2874,
      "wife": 2875,
      "Sen": 2876,
      "loss": 2877,
      "mult": 2878,
      "assoc": 2879,
      "Army": 2880,
      "standing": 2881,
      "ha": 2882,
      "working": 2883,
      "Care": 2884,
      "El": 2885,
      "don": 2886,
      "wall": 2887,
      "utes": 2888,
      "ky": 2889,
      "women": 2890,
      "applic": 2891,
      "designed": 2892,
      "profess": 2893,
      "dark": 2894,
      "hab": 2895,
      "aper": 2896,
      "resident": 2897,
      "Dis": 2898,
      "outside": 2899,
      "critics": 2900,
      "eastern": 2901,
      "Rep": 2902,
      "ota": 2903,
      "specific": 2904,
      "mph": 2905,
      "orse": 2906,
      "features": 2907,
      "France": 2908,
      "eventually": 2909,
      "hurricane": 2910,
      "oto": 2911,
      "estim": 2912,
      "base": 2913,
      "tre": 2914,
      "osp": 2915,
      "35": 2916,
      "Cup": 2917,
      "cal": 2918,
      "lack": 2919,
      "fourth": 2920,
      "impro": 2921,
      "odes": 2922,
      "Robert": 2923,
      "David": 2924,
      "Fin": 2925,
      "forms": 2926,
      "reek": 2927,
      "sett": 2928,
      "decided": 2929,
      "Red": 2930,
      "saw": 2931,
      "ays": 2932,
      "birds": 2933,
      "Val": 2934,
      "ho": 2935,
      "ping": 2936,
      "heavy": 2937,
      "forced": 2938,
      "ublic": 2939,
      "Du": 2940,
      "God": 2941,
      "SA": 2942,
      "accept": 2943,
      "2003": 2944,
      "individ": 2945,
      "commer": 2946,
      "friend": 2947,
      "Cr": 2948,
      "lin": 2949,
      "pitch": 2950,
      "remin": 2951,
      "separ": 2952,
      "damage": 2953,
      "Two": 2954,
      "either": 2955,
      "2015": 2956,
      "pat": 2957,
      "tail": 2958,
      "points": 2959,
      "azine": 2960,
      "dou": 2961,
      "nar": 2962,
      "route": 2963,
      "cret": 2964,
      "ming": 2965,
      "pie": 2966,
      "writer": 2967,
      "leading": 2968,
      "Ap": 2969,
      "Qu": 2970,
      "ceed": 2971,
      "quest": 2972,
      "increasing": 2973,
      "believed": 2974,
      "illa": 2975,
      "lled": 2976,
      "behind": 2977,
      "Hen": 2978,
      "cup": 2979,
      "mater": 2980,
      "research": 2981,
      "respect": 2982,
      "service": 2983,
      "claimed": 2984,
      "foc": 2985,
      "voc": 2986,
      "cert": 2987,
      "Carey": 2988,
      "Love": 2989,
      "sour": 2990,
      "employ": 2991,
      "condom": 2992,
      "spotify": 2993,
      "van": 2994,
      "almost": 2995,
      "acc": 2996,
      "term": 2997,
      "igned": 2998,
      "rick": 2999,
      "appearance": 3000,
      "gress": 3001,
      "Play": 3002,
      "Am": 3003,
      "Dr": 3004,
      "case": 3005,
      "yards": 3006,
      "Stre": 3007,
      "liament": 3008,
      "directed": 3009,
      "transfer": 3010,
      "example": 3011,
      "Music": 3012,
      "31": 3013,
      "dle": 3014,
      "ida": 3015,
      "compan": 3016,
      "central": 3017,
      "respons": 3018,
      "fantry": 3019,
      "80": 3020,
      "Champion": 3021,
      "achie": 3022,
      "indic": 3023,
      "largest": 3024,
      "generally": 3025,
      "Royal": 3026,
      "70": 3027,
      "Part": 3028,
      "western": 3029,
      "Mad": 3030,
      "nine": 3031,
      "ration": 3032,
      "ering": 3033,
      "towards": 3034,
      "approach": 3035,
      "cross": 3036,
      "ica": 3037,
      "brought": 3038,
      "weeks": 3039,
      "2nd": 3040,
      "heel": 3041,
      "sem": 3042,
      "concl": 3043,
      "ids": 3044,
      "spir": 3045,
      "elements": 3046,
      "certain": 3047,
      "Act": 3048,
      "Mex": 3049,
      "river": 3050,
      "White": 3051,
      "pon": 3052,
      "ply": 3053,
      "ators": 3054,
      "oud": 3055,
      "defe": 3056,
      "anti": 3057,
      "crew": 3058,
      "Brigade": 3059,
      "director": 3060,
      "featured": 3061,
      "nes": 3062,
      "stage": 3063,
      "oted": 3064,
      "meas": 3065,
      "aircraft": 3066,
      "Bra": 3067,
      "Ir": 3068,
      "Wales": 3069,
      "hon": 3070,
      "avail": 3071,
      "upon": 3072,
      "wanted": 3073,
      "manager": 3074,
      "Med": 3075,
      "Most": 3076,
      "reve": 3077,
      "ington": 3078,
      "coll": 3079,
      "ald": 3080,
      "istic": 3081,
      "stry": 3082,
      "earlier": 3083,
      "Follow": 3084,
      "Hel": 3085,
      "San": 3086,
      "Viet": 3087,
      "mal": 3088,
      "ordan": 3089,
      "worked": 3090,
      "European": 3091,
      "condu": 3092,
      "pract": 3093,
      "parts": 3094,
      "allowed": 3095,
      "provided": 3096,
      "issue": 3097,
      "vscode": 3098,
      "sts": 3099,
      "section": 3100,
      "flood": 3101,
      "Federer": 3102,
      "Don": 3103,
      "tel": 3104,
      "ellow": 3105,
      "rail": 3106,
      "Cent": 3107,
      "Flor": 3108,
      "Jew": 3109,
      "Jordan": 3110,
      "leng": 3111,
      "mach": 3112,
      "stren": 3113,
      "love": 3114,
      "iction": 3115,
      "teams": 3116,
      "cially": 3117,
      "increased": 3118,
      "court": 3119,
      "45": 3120,
      "From": 3121,
      "hit": 3122,
      "ape": 3123,
      "rather": 3124,
      "highway": 3125,
      "Battalion": 3126,
      "George": 3127,
      "reminder": 3128,
      "ecut": 3129,
      "err": 3130,
      "contract": 3131,
      "mode": 3132,
      "minutes": 3133,
      "subsequ": 3134,
      "female": 3135,
      "sen": 3136,
      "inch": 3137,
      "reason": 3138,
      "atin": 3139,
      "sea": 3140,
      "joined": 3141,
      "Following": 3142,
      "Paul": 3143,
      "doc": 3144,
      "uter": 3145,
      "hest": 3146,
      "actions": 3147,
      "Rock": 3148,
      "give": 3149,
      "tee": 3150,
      "prob": 3151,
      "ishing": 3152,
      "keep": 3153,
      "useum": 3154,
      "particularly": 3155,
      "victory": 3156,
      "AA": 3157,
      "House": 3158,
      "Thom": 3159,
      "International": 3160,
      "hours": 3161,
      "streng": 3162,
      "fly": 3163,
      "uk": 3164,
      "think": 3165,
      "ouri": 3166,
      "ential": 3167,
      "operations": 3168,
      "changes": 3169,
      "Gal": 3170,
      "Ple": 3171,
      "ault": 3172,
      "here": 3173,
      "rid": 3174,
      "thod": 3175,
      "unk": 3176,
      "northern": 3177,
      "engine": 3178,
      "Hero": 3179,
      "Christian": 3180,
      "Game": 3181,
      "Ho": 3182,
      "2014": 3183,
      "maintain": 3184,
      "Island": 3185,
      "counter": 3186,
      "troops": 3187,
      "Atlantic": 3188,
      "language": 3189,
      "length": 3190,
      "500": 3191,
      "Ver": 3192,
      "lam": 3193,
      "past": 3194,
      "ube": 3195,
      "uel": 3196,
      "ari": 3197,
      "19th": 3198,
      "evidence": 3199,
      "closed": 3200,
      "38": 3201,
      "Pri": 3202,
      "ded": 3203,
      "seem": 3204,
      "super": 3205,
      "soon": 3206,
      "III": 3207,
      "Mary": 3208,
      "plann": 3209,
      "active": 3210,
      "recording": 3211,
      "going": 3212,
      "saying": 3213,
      "Bay": 3214,
      "dy": 3215,
      "inj": 3216,
      "emy": 3217,
      "ometimes": 3218,
      "Street": 3219,
      "available": 3220,
      "Oliv": 3221,
      "Screen": 3222,
      "bed": 3223,
      "tor": 3224,
      "erous": 3225,
      "account": 3226,
      "ding": 3227,
      "deal": 3228,
      "oney": 3229,
      "poor": 3230,
      "185": 3231,
      "Florida": 3232,
      "Rev": 3233,
      "Ze": 3234,
      "prec": 3235,
      "ita": 3236,
      "sell": 3237,
      "amount": 3238,
      "whom": 3239,
      "aps": 3240,
      "Command": 3241,
      "goals": 3242,
      "needed": 3243,
      "cycl": 3244,
      "Phil": 3245,
      "Mark": 3246,
      "alter": 3247,
      "conom": 3248,
      "Do": 3249,
      "pan": 3250,
      "taking": 3251,
      "territ": 3252,
      "rang": 3253,
      "type": 3254,
      "Missouri": 3255,
      "gold": 3256,
      "hous": 3257,
      "ns": 3258,
      "dev": 3259,
      "ills": 3260,
      "minist": 3261,
      "situ": 3262,
      "units": 3263,
      "usually": 3264,
      "That": 3265,
      "Tech": 3266,
      "Mac": 3267,
      "Tor": 3268,
      "drop": 3269,
      "failed": 3270,
      "argu": 3271,
      "proper": 3272,
      "remains": 3273,
      "Day": 3274,
      "stay": 3275,
      "station": 3276,
      "aring": 3277,
      "bell": 3278,
      "cts": 3279,
      "needs": 3280,
      "suffer": 3281,
      "praised": 3282,
      "hom": 3283,
      "arily": 3284,
      "iter": 3285,
      "above": 3286,
      "graphy": 3287,
      "Gre": 3288,
      "hard": 3289,
      "happ": 3290,
      "ties": 3291,
      "deli": 3292,
      "Indian": 3293,
      "Best": 3294,
      "Cam": 3295,
      "Res": 3296,
      "aland": 3297,
      "okay": 3298,
      "pressed": 3299,
      "request": 3300,
      "Other": 3301,
      "ials": 3302,
      "watch": 3303,
      "comes": 3304,
      "188": 3305,
      "flight": 3306,
      "winds": 3307,
      "window": 3308,
      "viol": 3309,
      "Bus": 3310,
      "Cro": 3311,
      "Sch": 3312,
      "Vol": 3313,
      "aut": 3314,
      "nomin": 3315,
      "ores": 3316,
      "invest": 3317,
      "ples": 3318,
      "official": 3319,
      "respond": 3320,
      "appointed": 3321,
      "better": 3322,
      "Vir": 3323,
      "civil": 3324,
      "must": 3325,
      "pain": 3326,
      "inst": 3327,
      "ention": 3328,
      "ots": 3329,
      "running": 3330,
      "previously": 3331,
      "quarter": 3332,
      "Coun": 3333,
      "Fir": 3334,
      "Rav": 3335,
      "Str": 3336,
      "hig": 3337,
      "replaced": 3338,
      "dead": 3339,
      "pool": 3340,
      "football": 3341,
      "itself": 3342,
      "ibility": 3343,
      "shows": 3344,
      "passed": 3345,
      "Egy": 3346,
      "race": 3347,
      "told": 3348,
      "tolo": 3349,
      "ributed": 3350,
      "business": 3351,
      "touch": 3352,
      "signed": 3353,
      "lay": 3354,
      "might": 3355,
      "native": 3356,
      "execut": 3357,
      "interview": 3358,
      "Despite": 3359,
      "Michael": 3360,
      "relationship": 3361,
      "90": 3362,
      "ires": 3363,
      "sat": 3364,
      "already": 3365,
      "estimated": 3366,
      "36": 3367,
      "75": 3368,
      "Em": 3369,
      "bow": 3370,
      "erson": 3371,
      "priv": 3372,
      "turned": 3373,
      "highest": 3374,
      "bound": 3375,
      "adm": 3376,
      "compl": 3377,
      "space": 3378,
      "syn": 3379,
      "Dep": 3380,
      "bri": 3381,
      "fut": 3382,
      "mic": 3383,
      "treat": 3384,
      "threat": 3385,
      "educ": 3386,
      "enough": 3387,
      "forward": 3388,
      "immedi": 3389,
      "186": 3390,
      "studio": 3391,
      "social": 3392,
      "establish": 3393,
      "structure": 3394,
      "involved": 3395,
      "Richard": 3396,
      "Hol": 3397,
      "Que": 3398,
      "olic": 3399,
      "Oldham": 3400,
      "Henry": 3401,
      "But": 3402,
      "Squ": 3403,
      "los": 3404,
      "sil": 3405,
      "aces": 3406,
      "ilities": 3407,
      "prepar": 3408,
      "bi": 3409,
      "thus": 3410,
      "ula": 3411,
      "2001": 3412,
      "Carol": 3413,
      "suggested": 3414,
      "size": 3415,
      "atory": 3416,
      "conc": 3417,
      "likely": 3418,
      "capture": 3419,
      "scene": 3420,
      "Japanese": 3421,
      "introduced": 3422,
      "aries": 3423,
      "except": 3424,
      "block": 3425,
      "screenshot": 3426,
      "transport": 3427,
      "Brown": 3428,
      "If": 3429,
      "NY": 3430,
      "President": 3431,
      "Times": 3432,
      "irth": 3433,
      "ries": 3434,
      "phys": 3435,
      "tons": 3436,
      "operation": 3437,
      "Olivier": 3438,
      "league": 3439,
      "imp": 3440,
      "Arab": 3441,
      "limited": 3442,
      "average": 3443,
      "FA": 3444,
      "School": 3445,
      "Var": 3446,
      "heav": 3447,
      "access": 3448,
      "commit": 3449,
      "anna": 3450,
      "fully": 3451,
      "Irish": 3452,
      "Pac": 3453,
      "fru": 3454,
      "hol": 3455,
      "tion": 3456,
      "intens": 3457,
      "whose": 3458,
      "object": 3459,
      "capital": 3460,
      "damaged": 3461,
      "asked": 3462,
      "Cong": 3463,
      "Sm": 3464,
      "oid": 3465,
      "inn": 3466,
      "asy": 3467,
      "pected": 3468,
      "occup": 3469,
      "cru": 3470,
      "ronic": 3471,
      "India": 3472,
      "village": 3473,
      "natural": 3474,
      "Egypt": 3475,
      "Mal": 3476,
      "Many": 3477,
      "rate": 3478,
      "woman": 3479,
      "adron": 3480,
      "conf": 3481,
      "usion": 3482,
      "provide": 3483,
      "commiss": 3484,
      "ference": 3485,
      "Art": 3486,
      "required": 3487,
      "ordered": 3488,
      "quickly": 3489,
      "Gl": 3490,
      "slow": 3491,
      "tom": 3492,
      "lected": 3493,
      "icted": 3494,
      "approxim": 3495,
      "temporary": 3496,
      "Mos": 3497,
      "econom": 3498,
      "lot": 3499,
      "pot": 3500,
      "ti": 3501,
      "defin": 3502,
      "ateg": 3503,
      "related": 3504,
      "religious": 3505,
      "First": 3506,
      "Rose": 3507,
      "chap": 3508,
      "ump": 3509,
      "feel": 3510,
      "voice": 3511,
      "Canada": 3512,
      "Wheel": 3513,
      "independ": 3514,
      "aled": 3515,
      "bridge": 3516,
      "Star": 3517,
      "despite": 3518,
      "commercial": 3519,
      "Mexico": 3520,
      "Go": 3521,
      "Rac": 3522,
      "bill": 3523,
      "dol": 3524,
      "imin": 3525,
      "marked": 3526,
      "Super": 3527,
      "Thomas": 3528,
      "twent": 3529,
      "note": 3530,
      "nearly": 3531,
      "community": 3532,
      "Gold": 3533,
      "How": 3534,
      "Hall": 3535,
      "Jer": 3536,
      "aters": 3537,
      "archae": 3538,
      "listed": 3539,
      "assistant": 3540,
      "Please": 3541,
      "ny": 3542,
      "nation": 3543,
      "ville": 3544,
      "states": 3545,
      "iff": 3546,
      "cost": 3547,
      "international": 3548,
      "surround": 3549,
      "Guitar": 3550,
      "Zealand": 3551,
      "Tom": 3552,
      "hib": 3553,
      "oring": 3554,
      "ctive": 3555,
      "exc": 3556,
      "notes": 3557,
      "box": 3558,
      "score": 3559,
      "inese": 3560,
      "Britain": 3561,
      "initially": 3562,
      "circ": 3563,
      "Republic": 3564,
      "Bal": 3565,
      "Mid": 3566,
      "Not": 3567,
      "bal": 3568,
      "according": 3569,
      "agon": 3570,
      "winning": 3571,
      "particip": 3572,
      "future": 3573,
      "mut": 3574,
      "zz": 3575,
      "thedr": 3576,
      "enj": 3577,
      "ody": 3578,
      "perform": 3579,
      "Chinese": 3580,
      "arrived": 3581,
      "Bel": 3582,
      "Card": 3583,
      "Jin": 3584,
      "flow": 3585,
      "food": 3586,
      "rup": 3587,
      "espe": 3588,
      "nest": 3589,
      "iving": 3590,
      "occas": 3591,
      "iple": 3592,
      "Union": 3593,
      "includes": 3594,
      "Peter": 3595,
      "discuss": 3596,
      "probably": 3597,
      "Pacific": 3598,
      "especially": 3599,
      "sal": 3600,
      "uments": 3601,
      "moving": 3602,
      "training": 3603,
      "spent": 3604,
      "photo": 3605,
      "minor": 3606,
      "Cath": 3607,
      "Law": 3608,
      "Set": 3609,
      "Soc": 3610,
      "sometimes": 3611,
      "acqu": 3612,
      "rian": 3613,
      "aker": 3614,
      "coach": 3615,
      "meeting": 3616,
      "NA": 3617,
      "bot": 3618,
      "anch": 3619,
      "minute": 3620,
      "remaining": 3621,
      "Wheeler": 3622,
      "Of": 3623,
      "latter": 3624,
      "oon": 3625,
      "rd": 3626,
      "eding": 3627,
      "army": 3628,
      "prevent": 3629,
      "completely": 3630,
      "mixed": 3631,
      "beginning": 3632,
      "Angel": 3633,
      "fail": 3634,
      "ius": 3635,
      "ady": 3636,
      "apt": 3637,
      "emp": 3638,
      "Assoc": 3639,
      "reviews": 3640,
      "Im": 3641,
      "ken": 3642,
      "male": 3643,
      "2002": 3644,
      "decision": 3645,
      "quarters": 3646,
      "approximately": 3647,
      "1st": 3648,
      "48": 3649,
      "Dan": 3650,
      "zy": 3651,
      "create": 3652,
      "center": 3653,
      "Canadian": 3654,
      "habit": 3655,
      "33": 3656,
      "Later": 3657,
      "Mer": 3658,
      "UK": 3659,
      "aj": 3660,
      "ben": 3661,
      "daugh": 3662,
      "frequ": 3663,
      "jour": 3664,
      "itz": 3665,
      "ites": 3666,
      "ously": 3667,
      "maxim": 3668,
      "39": 3669,
      "Light": 3670,
      "hair": 3671,
      "entolo": 3672,
      "ases": 3673,
      "lymp": 3674,
      "positive": 3675,
      "Under": 3676,
      "Africa": 3677,
      "thedral": 3678,
      "Navy": 3679,
      "Olymp": 3680,
      "birth": 3681,
      "ike": 3682,
      "whe": 3683,
      "teach": 3684,
      "187": 3685,
      "larger": 3686,
      "feature": 3687,
      "students": 3688,
      "captured": 3689,
      "defeated": 3690,
      "47": 3691,
      "bio": 3692,
      "makes": 3693,
      "contr": 3694,
      "uded": 3695,
      "president": 3696,
      "Scientolo": 3697,
      "concern": 3698,
      "Hu": 3699,
      "cele": 3700,
      "ession": 3701,
      "aval": 3702,
      "idea": 3703,
      "liter": 3704,
      "prior": 3705,
      "sched": 3706,
      "Lo": 3707,
      "Sing": 3708,
      "ga": 3709,
      "uals": 3710,
      "staff": 3711,
      "amed": 3712,
      "Stud": 3713,
      "constructed": 3714,
      "experience": 3715,
      "Virgin": 3716,
      "Cer": 3717,
      "Cal": 3718,
      "Great": 3719,
      "Tur": 3720,
      "mist": 3721,
      "poet": 3722,
      "supported": 3723,
      "changed": 3724,
      "magazine": 3725,
      "additional": 3726,
      "fleet": 3727,
      "Ot": 3728,
      "Ter": 3729,
      "hou": 3730,
      "thes": 3731,
      "depression": 3732,
      "iding": 3733,
      "shown": 3734,
      "pressure": 3735,
      "stein": 3736,
      "agreed": 3737,
      "Rachel": 3738,
      "ih": 3739,
      "mute": 3740,
      "anay": 3741,
      "McC": 3742,
      "morning": 3743,
      "broadcast": 3744,
      "material": 3745,
      "FI": 3746,
      "Lu": 3747,
      "Spe": 3748,
      "ency": 3749,
      "ander": 3750,
      "assigned": 3751,
      "intended": 3752,
      "discovered": 3753,
      "selves": 3754,
      "police": 3755,
      "Billboard": 3756,
      "Award": 3757,
      "pet": 3758,
      "roll": 3759,
      "suit": 3760,
      "temper": 3761,
      "subject": 3762,
      "arriage": 3763,
      "smaller": 3764,
      "Charles": 3765,
      "fifth": 3766,
      "Sam": 3767,
      "mas": 3768,
      "pay": 3769,
      "urt": 3770,
      "cean": 3771,
      "2000": 3772,
      "undred": 3773,
      "Ravindu": 3774,
      "anayake": 3775,
      "Hist": 3776,
      "Penn": 3777,
      "rect": 3778,
      "becoming": 3779,
      "load": 3780,
      "rics": 3781,
      "Che": 3782,
      "Creek": 3783,
      "cm": 3784,
      "done": 3785,
      "gent": 3786,
      "ios": 3787,
      "rat": 3788,
      "onse": 3789,
      "secur": 3790,
      "launched": 3791,
      "favor": 3792,
      "Championship": 3793,
      "pad": 3794,
      "aven": 3795,
      "surface": 3796,
      "anks": 3797,
      "Regiment": 3798,
      "professional": 3799,
      "Hill": 3800,
      "ba": 3801,
      "paren": 3802,
      "edy": 3803,
      "defeat": 3804,
      "ifa": 3805,
      "meant": 3806,
      "groups": 3807,
      "Western": 3808,
      "summer": 3809,
      "problems": 3810,
      "osaurus": 3811,
      "Sar": 3812,
      "link": 3813,
      "appears": 3814,
      "Colle": 3815,
      "rison": 3816,
      "Scott": 3817,
      "viron": 3818,
      "37": 3819,
      "Fort": 3820,
      "Sou": 3821,
      "fill": 3822,
      "ners": 3823,
      "ray": 3824,
      "adjust": 3825,
      "aily": 3826,
      "location": 3827,
      "course": 3828,
      "response": 3829,
      "Wood": 3830,
      "mis": 3831,
      "send": 3832,
      "enon": 3833,
      "demon": 3834,
      "abs": 3835,
      "pose": 3836,
      "contains": 3837,
      "mostly": 3838,
      "themselves": 3839,
      "visit": 3840,
      "metres": 3841,
      "function": 3842,
      "Scientology": 3843,
      "kan": 3844,
      "tic": 3845,
      "olution": 3846,
      "progress": 3847,
      "pole": 3848,
      "rael": 3849,
      "Arch": 3850,
      "1995": 3851,
      "domin": 3852,
      "stitute": 3853,
      "referred": 3854,
      "stream": 3855,
      "Since": 3856,
      "Turn": 3857,
      "icated": 3858,
      "champion": 3859,
      "concept": 3860,
      "apo": 3861,
      "atest": 3862,
      "print": 3863,
      "colon": 3864,
      "stories": 3865,
      "runs": 3866,
      "largely": 3867,
      "alifor": 3868,
      "radio": 3869,
      "Haifa": 3870,
      "document": 3871,
      "fit": 3872,
      "fell": 3873,
      "determin": 3874,
      "aging": 3875,
      "ranked": 3876,
      "flict": 3877,
      "Earth": 3878,
      "Association": 3879,
      "49": 3880,
      "fix": 3881,
      "vic": 3882,
      "ergy": 3883,
      "anal": 3884,
      "rein": 3885,
      "entered": 3886,
      "idents": 3887,
      "reser": 3888,
      "artment": 3889,
      "ishop": 3890,
      "bled": 3891,
      "jected": 3892,
      "market": 3893,
      "Croat": 3894,
      "Lord": 3895,
      "gal": 3896,
      "gir": 3897,
      "job": 3898,
      "money": 3899,
      "nature": 3900,
      "ream": 3901,
      "sey": 3902,
      "image": 3903,
      "iano": 3904,
      "bring": 3905,
      "observ": 3906,
      "Frank": 3907,
      "Senanayake": 3908,
      "Califor": 3909,
      "RA": 3910,
      "bad": 3911,
      "thick": 3912,
      "information": 3913,
      "perfect": 3914,
      "quality": 3915,
      "affic": 3916,
      "office": 3917,
      "relative": 3918,
      "Bright": 3919,
      "Over": 3920,
      "Oper": 3921,
      "gins": 3922,
      "reme": 3923,
      "adop": 3924,
      "otion": 3925,
      "lose": 3926,
      "critical": 3927,
      "Israel": 3928,
      "Parliament": 3929,
      "aught": 3930,
      "Film": 3931,
      "hop": 3932,
      "mom": 3933,
      "always": 3934,
      "leave": 3935,
      "arts": 3936,
      "earth": 3937,
      "grant": 3938,
      "Bey": 3939,
      "majority": 3940,
      "occurred": 3941,
      "Jewish": 3942,
      "Council": 3943,
      "brief": 3944,
      "Awards": 3945,
      "Gul": 3946,
      "Mil": 3947,
      "kind": 3948,
      "mat": 3949,
      "via": 3950,
      "anced": 3951,
      "leaving": 3952,
      "secut": 3953,
      "plied": 3954,
      "iva": 3955,
      "musical": 3956,
      "Bro": 3957,
      "Haw": 3958,
      "ML": 3959,
      "Year": 3960,
      "dim": 3961,
      "fa": 3962,
      "rare": 3963,
      "wing": 3964,
      "ert": 3965,
      "edge": 3966,
      "vey": 3967,
      "Chic": 3968,
      "ept": 3969,
      "Another": 3970,
      "schol": 3971,
      "dig": 3972,
      "jud": 3973,
      "emer": 3974,
      "exper": 3975,
      "What": 3976,
      "ledge": 3977,
      "media": 3978,
      "Ale": 3979,
      "Ross": 3980,
      "bs": 3981,
      "big": 3982,
      "hus": 3983,
      "hundred": 3984,
      "lie": 3985,
      "lived": 3986,
      "theme": 3987,
      "depart": 3988,
      "1950": 3989,
      "upper": 3990,
      "writers": 3991,
      "gods": 3992,
      "Galve": 3993,
      "Land": 3994,
      "Sur": 3995,
      "Sever": 3996,
      "insp": 3997,
      "deep": 3998,
      "neg": 3999,
      "setting": 4000,
      "officers": 4001,
      "consider": 4002,
      "onym": 4003,
      "primary": 4004,
      "meaning": 4005,
      "Nix": 4006,
      "ds": 4007,
      "ugu": 4008,
      "vice": 4009,
      "iny": 4010,
      "health": 4011,
      "guitar": 4012,
      "settle": 4013,
      "mitted": 4014,
      "equip": 4015,
      "ospital": 4016,
      "California": 4017,
      "fans": 4018,
      "nis": 4019,
      "takes": 4020,
      "throw": 4021,
      "step": 4022,
      "ication": 4023,
      "confir": 4024,
      "necess": 4025,
      "illery": 4026,
      "affe": 4027,
      "Station": 4028,
      "films": 4029,
      "episodes": 4030,
      "personal": 4031,
      "Volume": 4032,
      "twenty": 4033,
      "Galveston": 4034,
      "Camp": 4035,
      "wal": 4036,
      "proposed": 4037,
      "computer": 4038,
      "web": 4039,
      "2016": 4040,
      "1999": 4041,
      "fighting": 4042,
      "status": 4043,
      "application": 4044,
      "Catholic": 4045,
      "whether": 4046,
      "celebr": 4047,
      "76": 4048,
      "Kh": 4049,
      "Lou": 4050,
      "Mr": 4051,
      "Sto": 4052,
      "bon": 4053,
      "bomb": 4054,
      "married": 4055,
      "ining": 4056,
      "onto": 4057,
      "ulated": 4058,
      "numbers": 4059,
      "longer": 4060,
      "eye": 4061,
      "destroyed": 4062,
      "Chicago": 4063,
      "Fore": 4064,
      "Just": 4065,
      "Latin": 4066,
      "environ": 4067,
      "conv": 4068,
      "traffic": 4069,
      "hero": 4070,
      "speed": 4071,
      "Brad": 4072,
      "nearby": 4073,
      "books": 4074,
      "effects": 4075,
      "Jane": 4076,
      "Sal": 4077,
      "carried": 4078,
      "fre": 4079,
      "kil": 4080,
      "lif": 4081,
      "sus": 4082,
      "andon": 4083,
      "administ": 4084,
      "bey": 4085,
      "tray": 4086,
      "trade": 4087,
      "Ital": 4088,
      "rict": 4089,
      "newsp": 4090,
      "northeast": 4091,
      "soldiers": 4092,
      "400": 4093,
      "Hurricane": 4094,
      "mur": 4095,
      "mig": 4096,
      "orial": 4097,
      "expected": 4098,
      "worth": 4099,
      "sets": 4100,
      "Enter": 4101,
      "election": 4102,
      "starting": 4103,
      "competition": 4104,
      "nucle": 4105,
      "private": 4106,
      "Bow": 4107,
      "Os": 4108,
      "kin": 4109,
      "nel": 4110,
      "yet": 4111,
      "plat": 4112,
      "awarded": 4113,
      "ption": 4114,
      "Record": 4115,
      "conducted": 4116,
      "Ba": 4117,
      "Dj": 4118,
      "Mart": 4119,
      "Mey": 4120,
      "Saint": 4121,
      "fol": 4122,
      "itation": 4123,
      "lyrics": 4124,
      "chall": 4125,
      "plot": 4126,
      "plans": 4127,
      "earned": 4128,
      "whole": 4129,
      "cient": 4130,
      "piece": 4131,
      "Central": 4132,
      "subsequently": 4133,
      "32": 4134,
      "brow": 4135,
      "ging": 4136,
      "za": 4137,
      "itude": 4138,
      "overall": 4139,
      "boy": 4140,
      "discover": 4141,
      "syl": 4142,
      "Northern": 4143,
      "continue": 4144,
      "positions": 4145,
      "issued": 4146,
      "double": 4147,
      "Jam": 4148,
      "Out": 4149,
      "cred": 4150,
      "zo": 4151,
      "orm": 4152,
      "tourn": 4153,
      "method": 4154,
      "gue": 4155,
      "weight": 4156,
      "records": 4157,
      "standard": 4158,
      "industry": 4159,
      "commented": 4160,
      "Otto": 4161,
      "Del": 4162,
      "NC": 4163,
      "purch": 4164,
      "saf": 4165,
      "concert": 4166,
      "serious": 4167,
      "izing": 4168,
      "finally": 4169,
      "Alice": 4170,
      "complex": 4171,
      "bodies": 4172,
      "influence": 4173,
      "Pat": 4174,
      "Ty": 4175,
      "batter": 4176,
      "ses": 4177,
      "waters": 4178,
      "beat": 4179,
      "means": 4180,
      "minim": 4181,
      "ibly": 4182,
      "anger": 4183,
      "attacks": 4184,
      "greater": 4185,
      "successfully": 4186,
      "network": 4187,
      "Several": 4188,
      "Nixon": 4189,
      "44": 4190,
      "AI": 4191,
      "Ca": 4192,
      "Tex": 4193,
      "Villa": 4194,
      "today": 4195,
      "unable": 4196,
      "alled": 4197,
      "actor": 4198,
      "stra": 4199,
      "compared": 4200,
      "party": 4201,
      "centre": 4202,
      "Its": 4203,
      "annel": 4204,
      "Alkan": 4205,
      "doing": 4206,
      "legal": 4207,
      "Polish": 4208,
      "rapid": 4209,
      "immediately": 4210,
      "daughter": 4211,
      "Cour": 4212,
      "mel": 4213,
      "editor": 4214,
      "iser": 4215,
      "deb": 4216,
      "20th": 4217,
      "cannot": 4218,
      "1998": 4219,
      "giving": 4220,
      "brother": 4221,
      "stitut": 4222,
      "words": 4223,
      "tellig": 4224,
      "scenes": 4225,
      "activity": 4226,
      "decrease": 4227,
      "3rd": 4228,
      "Fow": 4229,
      "Tay": 4230,
      "Tour": 4231,
      "bury": 4232,
      "cu": 4233,
      "dated": 4234,
      "division": 4235,
      "gian": 4236,
      "path": 4237,
      "wa": 4238,
      "ón": 4239,
      "anish": 4240,
      "ening": 4241,
      "detail": 4242,
      "1930": 4243,
      "shoot": 4244,
      "helped": 4245,
      "buildings": 4246,
      "living": 4247,
      "directly": 4248,
      "expand": 4249,
      "traditional": 4250,
      "Mosley": 4251,
      "300": 4252,
      "begins": 4253,
      "conflict": 4254,
      "ultim": 4255,
      "outube": 4256,
      "raised": 4257,
      "leaders": 4258,
      "incor": 4259,
      "movement": 4260,
      "Liver": 4261,
      "Sol": 4262,
      "Tre": 4263,
      "iant": 4264,
      "anas": 4265,
      "escap": 4266,
      "prison": 4267,
      "portion": 4268,
      "regard": 4269,
      "levels": 4270,
      "figure": 4271,
      "Busch": 4272,
      "cé": 4273,
      "kick": 4274,
      "lers": 4275,
      "slight": 4276,
      "ican": 4277,
      "withdraw": 4278,
      "umb": 4279,
      "ett": 4280,
      "bery": 4281,
      "ordin": 4282,
      "issues": 4283,
      "Battle": 4284,
      "culture": 4285,
      "Somer": 4286,
      "source": 4287,
      "inspired": 4288,
      "Lake": 4289,
      "Sound": 4290,
      "fast": 4291,
      "pil": 4292,
      "attract": 4293,
      "demand": 4294,
      "verse": 4295,
      "terms": 4296,
      "something": 4297,
      "sequence": 4298,
      "African": 4299,
      "associated": 4300,
      "Liverpool": 4301,
      "Ram": 4302,
      "Vict": 4303,
      "hic": 4304,
      "ado": 4305,
      "umed": 4306,
      "intent": 4307,
      "finan": 4308,
      "conditions": 4309,
      "advant": 4310,
      "Christmas": 4311,
      "Like": 4312,
      "planned": 4313,
      "suffered": 4314,
      "Texas": 4315,
      "Fowler": 4316,
      "Somerset": 4317,
      "Bob": 4318,
      "Boy": 4319,
      "Fle": 4320,
      "Foot": 4321,
      "Lady": 4322,
      "Tenn": 4323,
      "marriage": 4324,
      "wound": 4325,
      "thir": 4326,
      "vement": 4327,
      "unit": 4328,
      "content": 4329,
      "Three": 4330,
      "1996": 4331,
      "allowing": 4332,
      "tracks": 4333,
      "Spanish": 4334,
      "husband": 4335,
      "Taylor": 4336,
      "Gar": 4337,
      "Games": 4338,
      "Met": 4339,
      "bour": 4340,
      "ram": 4341,
      "abandon": 4342,
      "ighter": 4343,
      "understand": 4344,
      "1993": 4345,
      "higher": 4346,
      "venue": 4347,
      "services": 4348,
      "presented": 4349,
      "extended": 4350,
      "greatest": 4351,
      "schools": 4352,
      "friends": 4353,
      "education": 4354,
      "dollar": 4355,
      "Mill": 4356,
      "Max": 4357,
      "hood": 4358,
      "mir": 4359,
      "mind": 4360,
      "rich": 4361,
      "things": 4362,
      "forts": 4363,
      "portun": 4364,
      "presence": 4365,
      "genus": 4366,
      "Common": 4367,
      "condoms": 4368,
      "machine": 4369,
      "enjoy": 4370,
      "sylvan": 4371,
      "Are": 4372,
      "Fl": 4373,
      "Good": 4374,
      "gas": 4375,
      "pow": 4376,
      "park": 4377,
      "really": 4378,
      "recomm": 4379,
      "olf": 4380,
      "Infantry": 4381,
      "ports": 4382,
      "polic": 4383,
      "oviet": 4384,
      "target": 4385,
      "34": 4386,
      "Russ": 4387,
      "Soviet": 4388,
      "Tem": 4389,
      "bid": 4390,
      "hu": 4391,
      "patter": 4392,
      "rong": 4393,
      "task": 4394,
      "án": 4395,
      "Paris": 4396,
      "collection": 4397,
      "Series": 4398,
      "individual": 4399,
      "companies": 4400,
      "strength": 4401,
      "cyclone": 4402,
      "situation": 4403,
      "Hum": 4404,
      "Route": 4405,
      "ker": 4406,
      "rot": 4407,
      "semb": 4408,
      "dem": 4409,
      "plays": 4410,
      "annual": 4411,
      "archite": 4412,
      "commander": 4413,
      "composed": 4414,
      "Party": 4415,
      "sembly": 4416,
      "Fire": 4417,
      "Time": 4418,
      "Ven": 4419,
      "pick": 4420,
      "rout": 4421,
      "rical": 4422,
      "ederal": 4423,
      "uries": 4424,
      "plant": 4425,
      "shire": 4426,
      "oke": 4427,
      "weap": 4428,
      "numerous": 4429,
      "tainment": 4430,
      "activities": 4431,
      "types": 4432,
      "territory": 4433,
      "Queen": 4434,
      "Squadron": 4435,
      "Carolina": 4436,
      "Ill": 4437,
      "Long": 4438,
      "eu": 4439,
      "farm": 4440,
      "hor": 4441,
      "mess": 4442,
      "rum": 4443,
      "acing": 4444,
      "ada": 4445,
      "opportun": 4446,
      "essa": 4447,
      "ousand": 4448,
      "scient": 4449,
      "preser": 4450,
      "athan": 4451,
      "metal": 4452,
      "require": 4453,
      "cathedral": 4454,
      "advance": 4455,
      "Virginia": 4456,
      "Meyer": 4457,
      "BA": 4458,
      "Nico": 4459,
      "mouth": 4460,
      "yn": 4461,
      "oncé": 4462,
      "atre": 4463,
      "ils": 4464,
      "selected": 4465,
      "Their": 4466,
      "cel": 4467,
      "utch": 4468,
      "mole": 4469,
      "anta": 4470,
      "overnor": 4471,
      "Second": 4472,
      "systems": 4473,
      "proteins": 4474,
      "attacked": 4475,
      "problem": 4476,
      "investig": 4477,
      "Beyoncé": 4478,
      "Museum": 4479,
      "Rad": 4480,
      "Tran": 4481,
      "tax": 4482,
      "inent": 4483,
      "removed": 4484,
      "cting": 4485,
      "artist": 4486,
      "estival": 4487,
      "ipp": 4488,
      "orders": 4489,
      "owned": 4490,
      "log": 4491,
      "recover": 4492,
      "highly": 4493,
      "distin": 4494,
      "Germany": 4495,
      "missed": 4496,
      "commands": 4497,
      "iami": 4498,
      "attempts": 4499,
      "initial": 4500,
      "knowledge": 4501,
      "figures": 4502,
      "nuclear": 4503,
      "responsible": 4504,
      "Pennsylvan": 4505,
      "Ottoman": 4506,
      "Hot": 4507,
      "Pit": 4508,
      "cat": 4509,
      "aspect": 4510,
      "artillery": 4511,
      "ipal": 4512,
      "acting": 4513,
      "blood": 4514,
      "offer": 4515,
      "offered": 4516,
      "Through": 4517,
      "symb": 4518,
      "write": 4519,
      "struction": 4520,
      "inside": 4521,
      "thens": 4522,
      "College": 4523,
      "46": 4524,
      "Er": 4525,
      "Nations": 4526,
      "Tim": 4527,
      "Tri": 4528,
      "Up": 4529,
      "iew": 4530,
      "grand": 4531,
      "creation": 4532,
      "render": 4533,
      "severe": 4534,
      "distance": 4535,
      "famil": 4536,
      "analys": 4537,
      "Los": 4538,
      "Miami": 4539,
      "Six": 4540,
      "Water": 4541,
      "cance": 4542,
      "crow": 4543,
      "horse": 4544,
      "repe": 4545,
      "oft": 4546,
      "omer": 4547,
      "beer": 4548,
      "actually": 4549,
      "scoring": 4550,
      "dise": 4551,
      "variety": 4552,
      "Acad": 4553,
      "casual": 4554,
      "middle": 4555,
      "Jackson": 4556,
      "sexual": 4557,
      "peaked": 4558,
      "houses": 4559,
      "admium": 4560,
      "Both": 4561,
      "Dam": 4562,
      "Lan": 4563,
      "Sir": 4564,
      "Wel": 4565,
      "gain": 4566,
      "pson": 4567,
      "andid": 4568,
      "adium": 4569,
      "odon": 4570,
      "qual": 4571,
      "150": 4572,
      "headquarters": 4573,
      "Prince": 4574,
      "widely": 4575,
      "Scotland": 4576,
      "copies": 4577,
      "multiple": 4578,
      "Victor": 4579,
      "5th": 4580,
      "Cross": 4581,
      "Jose": 4582,
      "cis": 4583,
      "pul": 4584,
      "piano": 4585,
      "speak": 4586,
      "producer": 4587,
      "background": 4588,
      "Sea": 4589,
      "chester": 4590,
      "attempted": 4591,
      "respectively": 4592,
      "murder": 4593,
      "Bu": 4594,
      "Ever": 4595,
      "cam": 4596,
      "dro": 4597,
      "rev": 4598,
      "below": 4599,
      "ider": 4600,
      "tru": 4601,
      "blue": 4602,
      "studies": 4603,
      "rule": 4604,
      "portray": 4605,
      "describes": 4606,
      "allows": 4607,
      "countries": 4608,
      "powerful": 4609,
      "historical": 4610,
      "reduced": 4611,
      "touchdown": 4612,
      "Department": 4613,
      "Smith": 4614,
      "maximum": 4615,
      "6th": 4616,
      "core": 4617,
      "alty": 4618,
      "mob": 4619,
      "spect": 4620,
      "1991": 4621,
      "Blue": 4622,
      "Anderson": 4623,
      "heavily": 4624,
      "Pennsylvania": 4625,
      "Center": 4626,
      "Dou": 4627,
      "MS": 4628,
      "Pen": 4629,
      "corn": 4630,
      "rated": 4631,
      "shop": 4632,
      "true": 4633,
      "ension": 4634,
      "vised": 4635,
      "transl": 4636,
      "sixth": 4637,
      "Colon": 4638,
      "audience": 4639,
      "matches": 4640,
      "performances": 4641,
      "Braa": 4642,
      "Ben": 4643,
      "Bol": 4644,
      "ean": 4645,
      "accur": 4646,
      "sec": 4647,
      "adult": 4648,
      "managed": 4649,
      "aved": 4650,
      "Chris": 4651,
      "spread": 4652,
      "science": 4653,
      "ranch": 4654,
      "nov": 4655,
      "observed": 4656,
      "relief": 4657,
      "1997": 4658,
      "titles": 4659,
      "resulted": 4660,
      "stitution": 4661,
      "separate": 4662,
      "concluded": 4663,
      "parents": 4664,
      "affected": 4665,
      "Lit": 4666,
      "Live": 4667,
      "Tod": 4668,
      "xenon": 4669,
      "iron": 4670,
      "bles": 4671,
      "aware": 4672,
      "award": 4673,
      "wealth": 4674,
      "Club": 4675,
      "Add": 4676,
      "Corps": 4677,
      "focus": 4678,
      "Alex": 4679,
      "Mem": 4680,
      "fear": 4681,
      "hi": 4682,
      "mile": 4683,
      "rhy": 4684,
      "wear": 4685,
      "stating": 4686,
      "armed": 4687,
      "secret": 4688,
      "contemporary": 4689,
      "opin": 4690,
      "peace": 4691,
      "ift": 4692,
      "recent": 4693,
      "color": 4694,
      "sole": 4695,
      "singer": 4696,
      "Force": 4697,
      "organized": 4698,
      "sites": 4699,
      "Minnes": 4700,
      "declared": 4701,
      "achieved": 4702,
      "revealed": 4703,
      "Green": 4704,
      "Minnesota": 4705,
      "Fri": 4706,
      "jun": 4707,
      "intellig": 4708,
      "clim": 4709,
      "akapo": 4710,
      "excl": 4711,
      "appearances": 4712,
      "refused": 4713,
      "faced": 4714,
      "typically": 4715,
      "ricket": 4716,
      "contrast": 4717,
      "Italian": 4718,
      "Football": 4719,
      "Bul": 4720,
      "Fur": 4721,
      "drew": 4722,
      "thousand": 4723,
      "isions": 4724,
      "heart": 4725,
      "becomes": 4726,
      "ements": 4727,
      "Start": 4728,
      "serve": 4729,
      "attention": 4730,
      "offensive": 4731,
      "Thunder": 4732,
      "prefer": 4733,
      "elected": 4734,
      "Because": 4735,
      "controvers": 4736,
      "management": 4737,
      "Townsend": 4738,
      "trees": 4739,
      "Rosebery": 4740,
      "Brightness": 4741,
      "architect": 4742,
      "Hal": 4743,
      "cere": 4744,
      "hed": 4745,
      "ki": 4746,
      "ta": 4747,
      "asc": 4748,
      "university": 4749,
      "concent": 4750,
      "residents": 4751,
      "pret": 4752,
      "athus": 4753,
      "charge": 4754,
      "1992": 4755,
      "1994": 4756,
      "Shiva": 4757,
      "featuring": 4758,
      "carry": 4759,
      "says": 4760,
      "Walpole": 4761,
      "impact": 4762,
      "Hawai": 4763,
      "environment": 4764,
      "Meyerbeer": 4765,
      "42": 4766,
      "Aust": 4767,
      "Jul": 4768,
      "Tessa": 4769,
      "Van": 4770,
      "gam": 4771,
      "paper": 4772,
      "ustr": 4773,
      "isl": 4774,
      "vehic": 4775,
      "ety": 4776,
      "hands": 4777,
      "vocal": 4778,
      "deliver": 4779,
      "demonstr": 4780,
      "Nes": 4781,
      "Yue": 4782,
      "bat": 4783,
      "ture": 4784,
      "thers": 4785,
      "isation": 4786,
      "iles": 4787,
      "peror": 4788,
      "grass": 4789,
      "branch": 4790,
      "weaken": 4791,
      "mainly": 4792,
      "produce": 4793,
      "tower": 4794,
      "Launch": 4795,
      "practice": 4796,
      "Nicole": 4797,
      "brown": 4798,
      "pup": 4799,
      "smo": 4800,
      "instr": 4801,
      "resh": 4802,
      "shell": 4803,
      "athlet": 4804,
      "forest": 4805,
      "calling": 4806,
      "continues": 4807,
      "broken": 4808,
      "virt": 4809,
      "Society": 4810,
      "girl": 4811,
      "Court": 4812,
      "slightly": 4813,
      "4th": 4814,
      "Jim": 4815,
      "Sor": 4816,
      "fish": 4817,
      "sense": 4818,
      "undo": 4819,
      "sust": 4820,
      "osen": 4821,
      "mentioned": 4822,
      "assault": 4823,
      "creator": 4824,
      "poly": 4825,
      "mond": 4826,
      "seasons": 4827,
      "struck": 4828,
      "specim": 4829,
      "1970": 4830,
      "inkel": 4831,
      "extreme": 4832,
      "protein": 4833,
      "incorpor": 4834,
      "Illino": 4835,
      "Braathens": 4836,
      "Dire": 4837,
      "Ka": 4838,
      "Tropical": 4839,
      "bul": 4840,
      "border": 4841,
      "iate": 4842,
      "pun": 4843,
      "spl": 4844,
      "save": 4845,
      "ule": 4846,
      "winter": 4847,
      "wick": 4848,
      "restr": 4849,
      "chief": 4850,
      "ulpt": 4851,
      "strugg": 4852,
      "efforts": 4853,
      "cultural": 4854,
      "Hait": 4855,
      "advantage": 4856,
      "Cast": 4857,
      "Night": 4858,
      "Off": 4859,
      "tailed": 4860,
      "ufact": 4861,
      "wise": 4862,
      "wrong": 4863,
      "roles": 4864,
      "Chrome": 4865,
      "China": 4866,
      "visual": 4867,
      "viewers": 4868,
      "rights": 4869,
      "combat": 4870,
      "arent": 4871,
      "accepted": 4872,
      "fruit": 4873,
      "Southern": 4874,
      "folk": 4875,
      "Adam": 4876,
      "Finkel": 4877,
      "Rob": 4878,
      "SR": 4879,
      "Tele": 4880,
      "data": 4881,
      "ka": 4882,
      "oil": 4883,
      "paid": 4884,
      "push": 4885,
      "infantry": 4886,
      "atives": 4887,
      "alone": 4888,
      "esh": 4889,
      "conver": 4890,
      "estic": 4891,
      "scale": 4892,
      "180": 4893,
      "weather": 4894,
      "phil": 4895,
      "colour": 4896,
      "drum": 4897,
      "effort": 4898,
      "depict": 4899,
      "Captain": 4900,
      "primarily": 4901,
      "Highway": 4902,
      "vocals": 4903,
      "Little": 4904,
      "Finkelstein": 4905,
      "Bet": 4906,
      "Fey": 4907,
      "Kar": 4908,
      "wen": 4909,
      "zer": 4910,
      "ria": 4911,
      "expressed": 4912,
      "avoid": 4913,
      "starts": 4914,
      "Johnson": 4915,
      "Group": 4916,
      "extensive": 4917,
      "commissioned": 4918,
      "Emp": 4919,
      "Mog": 4920,
      "Ocean": 4921,
      "Pan": 4922,
      "Sil": 4923,
      "ban": 4924,
      "fiction": 4925,
      "sales": 4926,
      "sides": 4927,
      "sister": 4928,
      "dete": 4929,
      "neigh": 4930,
      "Indu": 4931,
      "berg": 4932,
      "affect": 4933,
      "Commun": 4934,
      "helm": 4935,
      "showed": 4936,
      "1986": 4937,
      "places": 4938,
      "protest": 4939,
      "county": 4940,
      "Book": 4941,
      "looking": 4942,
      "Portugu": 4943,
      "Apple": 4944,
      "ceeded": 4945,
      "Vietnam": 4946,
      "inches": 4947,
      "schedul": 4948,
      "Academy": 4949,
      "95": 4950,
      "96": 4951,
      "Fre": 4952,
      "Prote": 4953,
      "Tint": 4954,
      "Young": 4955,
      "cers": 4956,
      "youtube": 4957,
      "inal": 4958,
      "revol": 4959,
      "item": 4960,
      "extr": 4961,
      "astic": 4962,
      "perman": 4963,
      "boat": 4964,
      "sculpt": 4965,
      "rance": 4966,
      "ologist": 4967,
      "direction": 4968,
      "titled": 4969,
      "Spain": 4970,
      "calcul": 4971,
      "onymous": 4972,
      "Portuguese": 4973,
      "9th": 4974,
      "Aud": 4975,
      "Burn": 4976,
      "Close": 4977,
      "Horse": 4978,
      "fat": 4979,
      "atops": 4980,
      "toward": 4981,
      "ental": 4982,
      "ulations": 4983,
      "essions": 4984,
      "izes": 4985,
      "anning": 4986,
      "identified": 4987,
      "officer": 4988,
      "sky": 4989,
      "battalion": 4990,
      "divided": 4991,
      "street": 4992,
      "represented": 4993,
      "combined": 4994,
      "square": 4995,
      "excav": 4996,
      "Louis": 4997,
      "newspaper": 4998,
      "Welsh": 4999,
      "ceremon": 5000,
      "Nesbit": 5001,
      "Tintin": 5002,
      "PA": 5003,
      "Zhou": 5004,
      "lock": 5005,
      "restor": 5006,
      "ionally": 5007,
      "union": 5008,
      "prop": 5009,
      "shore": 5010,
      "artists": 5011,
      "Though": 5012,
      "captain": 5013,
      "founded": 5014,
      "Secret": 5015,
      "everything": 5016,
      "ribution": 5017,
      "mountain": 5018,
      "analysis": 5019,
      "Cre": 5020,
      "Cle": 5021,
      "Def": 5022,
      "Government": 5023,
      "lb": 5024,
      "rush": 5025,
      "inner": 5026,
      "reign": 5027,
      "alle": 5028,
      "otional": 5029,
      "mechan": 5030,
      "workers": 5031,
      "premi": 5032,
      "Engine": 5033,
      "eyes": 5034,
      "defense": 5035,
      "Service": 5036,
      "earliest": 5037,
      "connected": 5038,
      "narrow": 5039,
      "physical": 5040,
      "Angeles": 5041,
      "Ceres": 5042,
      "casualties": 5043,
      "Empire": 5044,
      "Nesbitt": 5045,
      "53": 5046,
      "Civil": 5047,
      "MD": 5048,
      "Oda": 5049,
      "Rem": 5050,
      "gn": 5051,
      "sac": 5052,
      "wit": 5053,
      "advert": 5054,
      "mod": 5055,
      "movie": 5056,
      "emb": 5057,
      "18th": 5058,
      "phen": 5059,
      "condition": 5060,
      "1990": 5061,
      "apparent": 5062,
      "officially": 5063,
      "northwest": 5064,
      "resulting": 5065,
      "possibly": 5066,
      "authorities": 5067,
      "influenced": 5068,
      "flooding": 5069,
      "Varanas": 5070,
      "adopted": 5071,
      "necessary": 5072,
      "financial": 5073,
      "Varanasi": 5074,
      "Sky": 5075,
      "cies": 5076,
      "eth": 5077,
      "mes": 5078,
      "ras": 5079,
      "uzz": 5080,
      "wild": 5081,
      "ancient": 5082,
      "umn": 5083,
      "proved": 5084,
      "ounds": 5085,
      "diss": 5086,
      "contain": 5087,
      "reports": 5088,
      "Francis": 5089,
      "castle": 5090,
      "Week": 5091,
      "southeast": 5092,
      "reference": 5093,
      "graphic": 5094,
      "closing": 5095,
      "basis": 5096,
      "currently": 5097,
      "Eva": 5098,
      "individuals": 5099,
      "Olympic": 5100,
      "Sarnia": 5101,
      "Odaen": 5102,
      "56": 5103,
      "7th": 5104,
      "Av": 5105,
      "CA": 5106,
      "Op": 5107,
      "Rh": 5108,
      "Wash": 5109,
      "ahead": 5110,
      "candid": 5111,
      "ror": 5112,
      "rating": 5113,
      "eds": 5114,
      "encour": 5115,
      "energy": 5116,
      "agan": 5117,
      "exhib": 5118,
      "manufact": 5119,
      "timer": 5120,
      "Ann": 5121,
      "phone": 5122,
      "door": 5123,
      "News": 5124,
      "pedo": 5125,
      "alongside": 5126,
      "soundtrack": 5127,
      "Team": 5128,
      "ovic": 5129,
      "recognition": 5130,
      "measure": 5131,
      "intensity": 5132,
      "security": 5133,
      "disease": 5134,
      "Illinois": 5135,
      "Odaenathus": 5136,
      "Bur": 5137,
      "Der": 5138,
      "Dist": 5139,
      "Lar": 5140,
      "Mat": 5141,
      "kakapo": 5142,
      "sn": 5143,
      "yellow": 5144,
      "chor": 5145,
      "chair": 5146,
      "oppon": 5147,
      "shap": 5148,
      "share": 5149,
      "awa": 5150,
      "themes": 5151,
      "normal": 5152,
      "arms": 5153,
      "letters": 5154,
      "Manchester": 5155,
      "royal": 5156,
      "Andrew": 5157,
      "DuMont": 5158,
      "losing": 5159,
      "relatively": 5160,
      "tournament": 5161,
      "Mogad": 5162,
      "Far": 5163,
      "Fred": 5164,
      "Home": 5165,
      "Pop": 5166,
      "So": 5167,
      "cadmium": 5168,
      "greg": 5169,
      "tur": 5170,
      "wave": 5171,
      "older": 5172,
      "igan": 5173,
      "Storm": 5174,
      "attended": 5175,
      "plement": 5176,
      "tried": 5177,
      "Early": 5178,
      "Wilhelm": 5179,
      "transferred": 5180,
      "determined": 5181,
      "Bon": 5182,
      "Ly": 5183,
      "rise": 5184,
      "inth": 5185,
      "height": 5186,
      "images": 5187,
      "opposed": 5188,
      "1920": 5189,
      "neut": 5190,
      "princ": 5191,
      "contact": 5192,
      "orses": 5193,
      "officials": 5194,
      "Clark": 5195,
      "frag": 5196,
      "rainfall": 5197,
      "applications": 5198,
      "dedicated": 5199,
      "torpedo": 5200,
      "surrounding": 5201,
      "browser": 5202,
      "Fant": 5203,
      "Horn": 5204,
      "Oma": 5205,
      "Ve": 5206,
      "Vide": 5207,
      "fil": 5208,
      "kare": 5209,
      "lives": 5210,
      "oo": 5211,
      "rub": 5212,
      "thr": 5213,
      "ises": 5214,
      "adel": 5215,
      "umes": 5216,
      "abama": 5217,
      "shape": 5218,
      "illustr": 5219,
      "boats": 5220,
      "Alabama": 5221,
      "passes": 5222,
      "grew": 5223,
      "cases": 5224,
      "projects": 5225,
      "Simpson": 5226,
      "Major": 5227,
      "couple": 5228,
      "collabor": 5229,
      "Even": 5230,
      "Way": 5231,
      "ares": 5232,
      "dress": 5233,
      "fair": 5234,
      "sens": 5235,
      "istics": 5236,
      "iana": 5237,
      "prise": 5238,
      "follows": 5239,
      "1988": 5240,
      "designated": 5241,
      "simply": 5242,
      "letter": 5243,
      "shortly": 5244,
      "suggests": 5245,
      "behav": 5246,
      "Edward": 5247,
      "gradu": 5248,
      "spirit": 5249,
      "journal": 5250,
      "Records": 5251,
      "dissip": 5252,
      "Washington": 5253,
      "Omaha": 5254,
      "Jour": 5255,
      "cities": 5256,
      "hang": 5257,
      "kept": 5258,
      "master": 5259,
      "ole": 5260,
      "uan": 5261,
      "edition": 5262,
      "seek": 5263,
      "ols": 5264,
      "imony": 5265,
      "unique": 5266,
      "tex": 5267,
      "oph": 5268,
      "oppos": 5269,
      "comfort": 5270,
      "Innis": 5271,
      "artic": 5272,
      "spring": 5273,
      "aust": 5274,
      "guest": 5275,
      "bute": 5276,
      "Argent": 5277,
      "Conf": 5278,
      "1960s": 5279,
      "explor": 5280,
      "society": 5281,
      "helps": 5282,
      "Mean": 5283,
      "pieces": 5284,
      "Helms": 5285,
      "potential": 5286,
      "Mogadish": 5287,
      "55": 5288,
      "FE": 5289,
      "Lis": 5290,
      "Sum": 5291,
      "VD": 5292,
      "ec": 5293,
      "ene": 5294,
      "ura": 5295,
      "comedy": 5296,
      "actors": 5297,
      "visited": 5298,
      "Before": 5299,
      "1940": 5300,
      "depth": 5301,
      "legisl": 5302,
      "assistance": 5303,
      "planet": 5304,
      "seems": 5305,
      "notepad": 5306,
      "Middle": 5307,
      "emphas": 5308,
      "McCall": 5309,
      "Mogadishu": 5310,
      "Cra": 5311,
      "GA": 5312,
      "Kent": 5313,
      "gained": 5314,
      "ii": 5315,
      "loud": 5316,
      "rig": 5317,
      "rear": 5318,
      "ato": 5319,
      "belong": 5320,
      "lys": 5321,
      "else": 5322,
      "Head": 5323,
      "Commission": 5324,
      "albums": 5325,
      "1980s": 5326,
      "causing": 5327,
      "domestic": 5328,
      "Perón": 5329,
      "favour": 5330,
      "sources": 5331,
      "argued": 5332,
      "website": 5333,
      "Joseph": 5334,
      "97": 5335,
      "Ban": 5336,
      "Four": 5337,
      "Mass": 5338,
      "Post": 5339,
      "Rih": 5340,
      "glo": 5341,
      "iro": 5342,
      "museum": 5343,
      "paint": 5344,
      "chosen": 5345,
      "clo": 5346,
      "extra": 5347,
      "asty": 5348,
      "timore": 5349,
      "phy": 5350,
      "icks": 5351,
      "gency": 5352,
      "Short": 5353,
      "Constant": 5354,
      "results": 5355,
      "advent": 5356,
      "Spot": 5357,
      "authority": 5358,
      "holds": 5359,
      "borough": 5360,
      "Valley": 5361,
      "question": 5362,
      "PlayStation": 5363,
      "Rihanna": 5364,
      "51": 5365,
      "64": 5366,
      "Dest": 5367,
      "Fam": 5368,
      "More": 5369,
      "Mah": 5370,
      "Rol": 5371,
      "dut": 5372,
      "sand": 5373,
      "tun": 5374,
      "aling": 5375,
      "entrance": 5376,
      "beach": 5377,
      "consecut": 5378,
      "twice": 5379,
      "ideas": 5380,
      "firm": 5381,
      "containing": 5382,
      "weak": 5383,
      "flank": 5384,
      "Assembly": 5385,
      "student": 5386,
      "1964": 5387,
      "defence": 5388,
      "vention": 5389,
      "structures": 5390,
      "buried": 5391,
      "criticized": 5392,
      "Palest": 5393,
      "travel": 5394,
      "settings": 5395,
      "homes": 5396,
      "negative": 5397,
      "confirmed": 5398,
      "ultimately": 5399,
      "Fleet": 5400,
      "600": 5401,
      "Bir": 5402,
      "Big": 5403,
      "Jup": 5404,
      "dates": 5405,
      "hospital": 5406,
      "ange": 5407,
      "alleg": 5408,
      "deploy": 5409,
      "uration": 5410,
      "umber": 5411,
      "model": 5412,
      "propos": 5413,
      "seconds": 5414,
      "Demo": 5415,
      "opera": 5416,
      "azz": 5417,
      "passing": 5418,
      "placement": 5419,
      "vessel": 5420,
      "industri": 5421,
      "claims": 5422,
      "significantly": 5423,
      "growth": 5424,
      "Hamels": 5425,
      "invas": 5426,
      "debuted": 5427,
      "Screenshot": 5428,
      "moment": 5429,
      "Djed": 5430,
      "Video": 5431,
      "43": 5432,
      "Bre": 5433,
      "Dev": 5434,
      "DVD": 5435,
      "Gi": 5436,
      "Hy": 5437,
      "Han": 5438,
      "Kore": 5439,
      "Ob": 5440,
      "Tru": 5441,
      "bud": 5442,
      "mosp": 5443,
      "foreign": 5444,
      "obtain": 5445,
      "Once": 5446,
      "Form": 5447,
      "organization": 5448,
      "growing": 5449,
      "independent": 5450,
      "temperature": 5451,
      "wounded": 5452,
      "Djedkare": 5453,
      "Lew": 5454,
      "NH": 5455,
      "Never": 5456,
      "Ul": 5457,
      "daily": 5458,
      "eigh": 5459,
      "hur": 5460,
      "lane": 5461,
      "rejected": 5462,
      "Independ": 5463,
      "brigade": 5464,
      "regions": 5465,
      "calls": 5466,
      "1947": 5467,
      "Isa": 5468,
      "prominent": 5469,
      "broke": 5470,
      "pursu": 5471,
      "technology": 5472,
      "mounted": 5473,
      "Torres": 5474,
      "Baltimore": 5475,
      "benef": 5476,
      "granted": 5477,
      "Bowl": 5478,
      "abandoned": 5479,
      "consecutive": 5480,
      "65": 5481,
      "Dun": 5482,
      "Each": 5483,
      "Hib": 5484,
      "Lock": 5485,
      "lic": 5486,
      "mort": 5487,
      "pict": 5488,
      "sam": 5489,
      "atmosp": 5490,
      "tomb": 5491,
      "heard": 5492,
      "acad": 5493,
      "lying": 5494,
      "chance": 5495,
      "ached": 5496,
      "temple": 5497,
      "aired": 5498,
      "therefore": 5499,
      "operated": 5500,
      "famous": 5501,
      "classification": 5502,
      "defensive": 5503,
      "prompt": 5504,
      "battles": 5505,
      "animal": 5506,
      "Histor": 5507,
      "Jupiter": 5508,
      "120": 5509,
      "BBC": 5510,
      "Den": 5511,
      "Jon": 5512,
      "Men": 5513,
      "Ry": 5514,
      "SP": 5515,
      "catch": 5516,
      "gs": 5517,
      "tact": 5518,
      "repair": 5519,
      "enemy": 5520,
      "iced": 5521,
      "oms": 5522,
      "unknown": 5523,
      "aine": 5524,
      "uten": 5525,
      "quake": 5526,
      "newly": 5527,
      "colony": 5528,
      "1941": 5529,
      "ficient": 5530,
      "reaching": 5531,
      "remind": 5532,
      "rooms": 5533,
      "Eastern": 5534,
      "selling": 5535,
      "economic": 5536,
      "battery": 5537,
      "Applewhite": 5538,
      "Gir": 5539,
      "Ox": 5540,
      "Slam": 5541,
      "bes": 5542,
      "bank": 5543,
      "cust": 5544,
      "rative": 5545,
      "ingu": 5546,
      "imag": 5547,
      "ocated": 5548,
      "phia": 5549,
      "raid": 5550,
      "elev": 5551,
      "singles": 5552,
      "descript": 5553,
      "controlled": 5554,
      "simple": 5555,
      "supporting": 5556,
      "advanced": 5557,
      "explained": 5558,
      "solo": 5559,
      "SAFE": 5560,
      "increasingly": 5561,
      "error": 5562,
      "nominated": 5563,
      "equipment": 5564,
      "Baby": 5565,
      "straight": 5566,
      "scheduled": 5567,
      "adelphia": 5568,
      "Down": 5569,
      "Due": 5570,
      "Run": 5571,
      "males": 5572,
      "pack": 5573,
      "yle": 5574,
      "resour": 5575,
      "Institute": 5576,
      "fired": 5577,
      "writes": 5578,
      "element": 5579,
      "address": 5580,
      "leader": 5581,
      "returning": 5582,
      "council": 5583,
      "programs": 5584,
      "cells": 5585,
      "Airport": 5586,
      "urban": 5587,
      "Review": 5588,
      "Egyptian": 5589,
      "Scottish": 5590,
      "settlement": 5591,
      "Forest": 5592,
      "Further": 5593,
      "41": 5594,
      "Eli": 5595,
      "Ru": 5596,
      "Writ": 5597,
      "kg": 5598,
      "lou": 5599,
      "matter": 5600,
      "ote": 5601,
      "edar": 5602,
      "otes": 5603,
      "compar": 5604,
      "versions": 5605,
      "1989": 5606,
      "1970s": 5607,
      "value": 5608,
      "breeding": 5609,
      "Guard": 5610,
      "join": 5611,
      "historian": 5612,
      "switch": 5613,
      "delay": 5614,
      "employed": 5615,
      "prepared": 5616,
      "Ath": 5617,
      "Abu": 5618,
      "Gall": 5619,
      "Greek": 5620,
      "Kir": 5621,
      "Nat": 5622,
      "Sat": 5623,
      "Vill": 5624,
      "bishop": 5625,
      "govern": 5626,
      "labor": 5627,
      "stations": 5628,
      "asure": 5629,
      "exit": 5630,
      "guan": 5631,
      "commonly": 5632,
      "ranged": 5633,
      "clean": 5634,
      "steam": 5635,
      "fields": 5636,
      "believe": 5637,
      "strike": 5638,
      "experienced": 5639,
      "fifty": 5640,
      "burns": 5641,
      "Swed": 5642,
      "maintained": 5643,
      "frequently": 5644,
      "Croatia": 5645,
      "8th": 5646,
      "Ali": 5647,
      "Mike": 5648,
      "haps": 5649,
      "tav": 5650,
      "trib": 5651,
      "theory": 5652,
      "stock": 5653,
      "hear": 5654,
      "acity": 5655,
      "resc": 5656,
      "plies": 5657,
      "aret": 5658,
      "herself": 5659,
      "landfall": 5660,
      "loy": 5661,
      "singing": 5662,
      "1987": 5663,
      "1972": 5664,
      "marks": 5665,
      "killing": 5666,
      "females": 5667,
      "recognized": 5668,
      "System": 5669,
      "consisted": 5670,
      "improve": 5671,
      "bottom": 5672,
      "130": 5673,
      "Mort": 5674,
      "ao": 5675,
      "cricket": 5676,
      "die": 5677,
      "gather": 5678,
      "horses": 5679,
      "iations": 5680,
      "lap": 5681,
      "ying": 5682,
      "inem": 5683,
      "alions": 5684,
      "arrang": 5685,
      "beaut": 5686,
      "usual": 5687,
      "ulate": 5688,
      "express": 5689,
      "ivity": 5690,
      "creating": 5691,
      "disp": 5692,
      "attend": 5693,
      "parliament": 5694,
      "1985": 5695,
      "disturb": 5696,
      "gradually": 5697,
      "Mounted": 5698,
      "Keats": 5699,
      "multi": 5700,
      "strengthen": 5701,
      "Philadelphia": 5702,
      "dropped": 5703,
      "Congress": 5704,
      "slowly": 5705,
      "Cardiff": 5706,
      "kilomet": 5707,
      "thirty": 5708,
      "Meanwhile": 5709,
      "Cy": 5710,
      "Dutch": 5711,
      "carri": 5712,
      "ech": 5713,
      "fict": 5714,
      "resem": 5715,
      "arrest": 5716,
      "semi": 5717,
      "deities": 5718,
      "resist": 5719,
      "prot": 5720,
      "exped": 5721,
      "ishes": 5722,
      "Stan": 5723,
      "finals": 5724,
      "Only": 5725,
      "filmed": 5726,
      "1984": 5727,
      "1944": 5728,
      "roads": 5729,
      "1960": 5730,
      "risk": 5731,
      "defend": 5732,
      "promoted": 5733,
      "ski": 5734,
      "sports": 5735,
      "Barrow": 5736,
      "correct": 5737,
      "learning": 5738,
      "religion": 5739,
      "pitched": 5740,
      "flying": 5741,
      "injury": 5742,
      "property": 5743,
      "failure": 5744,
      "beyond": 5745,
      "Addition": 5746,
      "Audio": 5747,
      "budget": 5748,
      "87": 5749,
      "Bri": 5750,
      "CE": 5751,
      "Hart": 5752,
      "Prem": 5753,
      "din": 5754,
      "federal": 5755,
      "lav": 5756,
      "laid": 5757,
      "pal": 5758,
      "tree": 5759,
      "ont": 5760,
      "lection": 5761,
      "channel": 5762,
      "deg": 5763,
      "rival": 5764,
      "trail": 5765,
      "illo": 5766,
      "acts": 5767,
      "actress": 5768,
      "oking": 5769,
      "awn": 5770,
      "phase": 5771,
      "regarded": 5772,
      "retired": 5773,
      "ifications": 5774,
      "highlight": 5775,
      "videos": 5776,
      "km2": 5777,
      "asket": 5778,
      "belief": 5779,
      "popularity": 5780,
      "burg": 5781,
      "freeway": 5782,
      "walls": 5783,
      "honor": 5784,
      "micro": 5785,
      "rapidly": 5786,
      "weapons": 5787,
      "families": 5788,
      "Today": 5789,
      "sustained": 5790,
      "Fer": 5791,
      "Fish": 5792,
      "Line": 5793,
      "Mu": 5794,
      "Nathan": 5795,
      "kes": 5796,
      "nasty": 5797,
      "ender": 5798,
      "context": 5799,
      "Italy": 5800,
      "Anth": 5801,
      "understanding": 5802,
      "1990s": 5803,
      "serving": 5804,
      "restaur": 5805,
      "publication": 5806,
      "humans": 5807,
      "Andy": 5808,
      "Minister": 5809,
      "remix": 5810,
      "drive": 5811,
      "teenth": 5812,
      "cougar": 5813,
      "filled": 5814,
      "challeng": 5815,
      "invasion": 5816,
      "94": 5817,
      "Bost": 5818,
      "Gard": 5819,
      "Vi": 5820,
      "Well": 5821,
      "dial": 5822,
      "fresh": 5823,
      "han": 5824,
      "sought": 5825,
      "recon": 5826,
      "chose": 5827,
      "agric": 5828,
      "train": 5829,
      "ieval": 5830,
      "seventh": 5831,
      "agreement": 5832,
      "scholar": 5833,
      "aspects": 5834,
      "agricult": 5835,
      "Greg": 5836,
      "HMS": 5837,
      "Jef": 5838,
      "Rog": 5839,
      "Sub": 5840,
      "TC": 5841,
      "aer": 5842,
      "hall": 5843,
      "mast": 5844,
      "ya": 5845,
      "theless": 5846,
      "stable": 5847,
      "inger": 5848,
      "outer": 5849,
      "accompan": 5850,
      "agement": 5851,
      "trou": 5852,
      "exact": 5853,
      "earch": 5854,
      "crete": 5855,
      "Chap": 5856,
      "landing": 5857,
      "ultane": 5858,
      "producers": 5859,
      "Americans": 5860,
      "160": 5861,
      "apping": 5862,
      "fung": 5863,
      "worldwide": 5864,
      "provides": 5865,
      "reflect": 5866,
      "Origin": 5867,
      "purpose": 5868,
      "occupied": 5869,
      "literature": 5870,
      "victim": 5871,
      "Operation": 5872,
      "louder": 5873,
      "66": 5874,
      "Ari": 5875,
      "Bas": 5876,
      "Haven": 5877,
      "Pet": 5878,
      "dan": 5879,
      "fought": 5880,
      "sist": 5881,
      "tin": 5882,
      "yl": 5883,
      "altar": 5884,
      "adapt": 5885,
      "ribe": 5886,
      "moves": 5887,
      "antimony": 5888,
      "Child": 5889,
      "guard": 5890,
      "code": 5891,
      "news": 5892,
      "Brig": 5893,
      "17th": 5894,
      "Conference": 5895,
      "Steve": 5896,
      "collected": 5897,
      "namese": 5898,
      "Among": 5899,
      "Vietnamese": 5900,
      "Gulf": 5901,
      "nucleus": 5902,
      "philos": 5903,
      "Cold": 5904,
      "Domin": 5905,
      "Gord": 5906,
      "Mur": 5907,
      "Naz": 5908,
      "Si": 5909,
      "Sup": 5910,
      "Stop": 5911,
      "wed": 5912,
      "ths": 5913,
      "inscript": 5914,
      "isol": 5915,
      "emic": 5916,
      "acks": 5917,
      "ips": 5918,
      "awards": 5919,
      "scar": 5920,
      "contained": 5921,
      "miner": 5922,
      "underground": 5923,
      "medical": 5924,
      "promotion": 5925,
      "Pho": 5926,
      "People": 5927,
      "effective": 5928,
      "Michigan": 5929,
      "Cambod": 5930,
      "Thunderbirds": 5931,
      "Athlet": 5932,
      "Dar": 5933,
      "Field": 5934,
      "Festival": 5935,
      "Jes": 5936,
      "Mic": 5937,
      "Nich": 5938,
      "cited": 5939,
      "crop": 5940,
      "revers": 5941,
      "alarm": 5942,
      "ott": 5943,
      "applied": 5944,
      "contributed": 5945,
      "presents": 5946,
      "ween": 5947,
      "End": 5948,
      "retch": 5949,
      "insula": 5950,
      "capable": 5951,
      "supply": 5952,
      "foundation": 5953,
      "changing": 5954,
      "finding": 5955,
      "entirely": 5956,
      "stopped": 5957,
      "Entertainment": 5958,
      "details": 5959,
      "intelligence": 5960,
      "shaped": 5961,
      "Oxford": 5962,
      "degree": 5963,
      "UN": 5964,
      "categ": 5965,
      "dating": 5966,
      "eas": 5967,
      "pa": 5968,
      "rine": 5969,
      "āda": 5970,
      "stages": 5971,
      "hem": 5972,
      "convers": 5973,
      "ables": 5974,
      "ounder": 5975,
      "aste": 5976,
      "udd": 5977,
      "owners": 5978,
      "coal": 5979,
      "anny": 5980,
      "secondary": 5981,
      "heads": 5982,
      "decor": 5983,
      "servation": 5984,
      "Juan": 5985,
      "gives": 5986,
      "facilities": 5987,
      "animals": 5988,
      "improved": 5989,
      "subsequent": 5990,
      "executive": 5991,
      "silver": 5992,
      "fictional": 5993,
      "DA": 5994,
      "Key": 5995,
      "NL": 5996,
      "Sus": 5997,
      "Your": 5998,
      "cake": 5999,
      "dream": 6000,
      "egg": 6001,
      "jack": 6002,
      "nur": 6003,
      "sort": 6004,
      "sail": 6005,
      "ancy": 6006,
      "esc": 6007,
      "acu": 6008,
      "iments": 6009,
      "unte": 6010,
      "ager": 6011,
      "ully": 6012,
      "Stone": 6013,
      "recently": 6014,
      "nothing": 6015,
      "visible": 6016,
      "dram": 6017,
      "goes": 6018,
      "publish": 6019,
      "12th": 6020,
      "engaged": 6021,
      "1981": 6022,
      "1942": 6023,
      "classified": 6024,
      "Class": 6025,
      "green": 6026,
      "ifying": 6027,
      "1939": 6028,
      "stones": 6029,
      "floor": 6030,
      "Muslim": 6031,
      "Revolution": 6032,
      "Studios": 6033,
      "1950s": 6034,
      "items": 6035,
      "kilometres": 6036,
      "700": 6037,
      "98": 6038,
      "NBA": 6039,
      "RE": 6040,
      "Rail": 6041,
      "dog": 6042,
      "til": 6043,
      "thew": 6044,
      "isy": 6045,
      "acher": 6046,
      "aded": 6047,
      "why": 6048,
      "tery": 6049,
      "contest": 6050,
      "plain": 6051,
      "exer": 6052,
      "udes": 6053,
      "ava": 6054,
      "ieter": 6055,
      "worship": 6056,
      "Also": 6057,
      "mush": 6058,
      "Bridge": 6059,
      "headed": 6060,
      "Mario": 6061,
      "didn": 6062,
      "Coast": 6063,
      "Exit": 6064,
      "finds": 6065,
      "historic": 6066,
      "Williams": 6067,
      "responded": 6068,
      "Turner": 6069,
      "Martin": 6070,
      "expanded": 6071,
      "Between": 6072,
      "Crazy": 6073,
      "Lewis": 6074,
      "Boston": 6075,
      "Band": 6076,
      "Ell": 6077,
      "Fox": 6078,
      "Hun": 6079,
      "Hell": 6080,
      "IV": 6081,
      "Kang": 6082,
      "Lie": 6083,
      "Test": 6084,
      "mate": 6085,
      "thur": 6086,
      "inspir": 6087,
      "ena": 6088,
      "itan": 6089,
      "acres": 6090,
      "sevent": 6091,
      "1918": 6092,
      "negot": 6093,
      "perial": 6094,
      "iance": 6095,
      "centuries": 6096,
      "anything": 6097,
      "angers": 6098,
      "flag": 6099,
      "Arthur": 6100,
      "Show": 6101,
      "ropium": 6102,
      "rossing": 6103,
      "decades": 6104,
      "1965": 6105,
      "trial": 6106,
      "missions": 6107,
      "rising": 6108,
      "evening": 6109,
      "possibility": 6110,
      "southwest": 6111,
      "incident": 6112,
      "Boise": 6113,
      "Cole": 6114,
      "Magazine": 6115,
      "learn": 6116,
      "Evita": 6117,
      "treatment": 6118,
      "Daniel": 6119,
      "faith": 6120,
      "Russian": 6121,
      "exclus": 6122,
      "Premier": 6123,
      "Aer": 6124,
      "Blo": 6125,
      "Kr": 6126,
      "Ron": 6127,
      "Row": 6128,
      "Upon": 6129,
      "ito": 6130,
      "naval": 6131,
      "sul": 6132,
      "eda": 6133,
      "reaction": 6134,
      "rose": 6135,
      "accompl": 6136,
      "seas": 6137,
      "ads": 6138,
      "astron": 6139,
      "notable": 6140,
      "scope": 6141,
      "Album": 6142,
      "campus": 6143,
      "faces": 6144,
      "communication": 6145,
      "losses": 6146,
      "layer": 6147,
      "policy": 6148,
      "ánh": 6149,
      "Democr": 6150,
      "utenant": 6151,
      "Bor": 6152,
      "Crit": 6153,
      "Chel": 6154,
      "Cub": 6155,
      "Crown": 6156,
      "Jain": 6157,
      "Jurch": 6158,
      "Rod": 6159,
      "Raf": 6160,
      "iar": 6161,
      "ini": 6162,
      "rey": 6163,
      "ati": 6164,
      "enic": 6165,
      "stretch": 6166,
      "begun": 6167,
      "lywood": 6168,
      "ansas": 6169,
      "draft": 6170,
      "ocks": 6171,
      "paralle": 6172,
      "1968": 6173,
      "1969": 6174,
      "1975": 6175,
      "label": 6176,
      "skin": 6177,
      "organiz": 6178,
      "deaths": 6179,
      "importance": 6180,
      "Project": 6181,
      "composition": 6182,
      "Final": 6183,
      "MacLe": 6184,
      "independence": 6185,
      "Turk": 6186,
      "purchased": 6187,
      "Gordon": 6188,
      "800": 6189,
      "Avenue": 6190,
      "DS": 6191,
      "EC": 6192,
      "Every": 6193,
      "Les": 6194,
      "OC": 6195,
      "Rome": 6196,
      "nie": 6197,
      "rac": 6198,
      "rab": 6199,
      "rates": 6200,
      "session": 6201,
      "wid": 6202,
      "yson": 6203,
      "thor": 6204,
      "anes": 6205,
      "onom": 6206,
      "arc": 6207,
      "assem": 6208,
      "concrete": 6209,
      "elimin": 6210,
      "neck": 6211,
      "shared": 6212,
      "lling": 6213,
      "cool": 6214,
      "choice": 6215,
      "ashion": 6216,
      "check": 6217,
      "sentence": 6218,
      "drawn": 6219,
      "Liu": 6220,
      "declined": 6221,
      "meetings": 6222,
      "performing": 6223,
      "briefly": 6224,
      "Khánh": 6225,
      "susp": 6226,
      "Jamal": 6227,
      "Tennyson": 6228,
      "Throughout": 6229,
      "District": 6230,
      "resources": 6231,
      "Nichol": 6232,
      "85": 6233,
      "Fall": 6234,
      "Iguan": 6235,
      "Ret": 6236,
      "WA": 6237,
      "cus": 6238,
      "dance": 6239,
      "hired": 6240,
      "ias": 6241,
      "iqu": 6242,
      "sun": 6243,
      "table": 6244,
      "warm": 6245,
      "ingly": 6246,
      "ading": 6247,
      "amy": 6248,
      "amber": 6249,
      "etic": 6250,
      "plum": 6251,
      "acted": 6252,
      "ublin": 6253,
      "Leon": 6254,
      "adding": 6255,
      "memory": 6256,
      "hydro": 6257,
      "distingu": 6258,
      "iverse": 6259,
      "fici": 6260,
      "glass": 6261,
      "frame": 6262,
      "tells": 6263,
      "Liber": 6264,
      "criticism": 6265,
      "reasons": 6266,
      "committee": 6267,
      "chapter": 6268,
      "escape": 6269,
      "recommended": 6270,
      "Temple": 6271,
      "protagon": 6272,
      "59": 6273,
      "61": 6274,
      "MTV": 6275,
      "lings": 6276,
      "nell": 6277,
      "sed": 6278,
      "uff": 6279,
      "reli": 6280,
      "roof": 6281,
      "oldest": 6282,
      "iring": 6283,
      "conve": 6284,
      "usal": 6285,
      "ctors": 6286,
      "agent": 6287,
      "Incre": 6288,
      "pty": 6289,
      "speaking": 6290,
      "Leg": 6291,
      "arrival": 6292,
      "longest": 6293,
      "decade": 6294,
      "passeng": 6295,
      "grapher": 6296,
      "greatly": 6297,
      "Songs": 6298,
      "combination": 6299,
      "trait": 6300,
      "existing": 6301,
      "Science": 6302,
      "senior": 6303,
      "Commander": 6304,
      "violence": 6305,
      "billion": 6306,
      "participated": 6307,
      "thesis": 6308,
      "championship": 6309,
      "enjoyed": 6310,
      "crowd": 6311,
      "witness": 6312,
      "paintings": 6313,
      "accompanied": 6314,
      "110": 6315,
      "54": 6316,
      "Bart": 6317,
      "Brian": 6318,
      "Dublin": 6319,
      "Five": 6320,
      "Ken": 6321,
      "Make": 6322,
      "Master": 6323,
      "Pa": 6324,
      "Ros": 6325,
      "Wall": 6326,
      "card": 6327,
      "fare": 6328,
      "fellow": 6329,
      "gro": 6330,
      "ju": 6331,
      "ogue": 6332,
      "san": 6333,
      "wides": 6334,
      "ía": 6335,
      "encounter": 6336,
      "ounger": 6337,
      "perhaps": 6338,
      "outs": 6339,
      "fee": 6340,
      "aug": 6341,
      "weet": 6342,
      "roughly": 6343,
      "symp": 6344,
      "substant": 6345,
      "16th": 6346,
      "developing": 6347,
      "1966": 6348,
      "1974": 6349,
      "simultane": 6350,
      "lasted": 6351,
      "Admir": 6352,
      "1952": 6353,
      "Board": 6354,
      "clubs": 6355,
      "holding": 6356,
      "Simone": 6357,
      "learned": 6358,
      "existence": 6359,
      "focused": 6360,
      "achieve": 6361,
      "planning": 6362,
      "commission": 6363,
      "Brook": 6364,
      "regarding": 6365,
      "symbol": 6366,
      "MacLeod": 6367,
      "52": 6368,
      "BS": 6369,
      "Dream": 6370,
      "Governor": 6371,
      "Low": 6372,
      "Ray": 6373,
      "Wind": 6374,
      "fine": 6375,
      "mine": 6376,
      "mical": 6377,
      "wart": 6378,
      "ān": 6379,
      "inity": 6380,
      "anth": 6381,
      "reput": 6382,
      "ador": 6383,
      "adap": 6384,
      "advis": 6385,
      "constant": 6386,
      "comic": 6387,
      "Instead": 6388,
      "spok": 6389,
      "spell": 6390,
      "spons": 6391,
      "pread": 6392,
      "crimin": 6393,
      "Commit": 6394,
      "consists": 6395,
      "Bru": 6396,
      "populations": 6397,
      "Rox": 6398,
      "serves": 6399,
      "transit": 6400,
      "getting": 6401,
      "protection": 6402,
      "trip": 6403,
      "priest": 6404,
      "Phill": 6405,
      "remn": 6406,
      "araj": 6407,
      "archaeological": 6408,
      "poetry": 6409,
      "dominated": 6410,
      "zoom": 6411,
      "athletes": 6412,
      "Spotify": 6413,
      "Broad": 6414,
      "CD": 6415,
      "Gab": 6416,
      "IG": 6417,
      "Jud": 6418,
      "Lin": 6419,
      "Ulys": 6420,
      "cit": 6421,
      "hill": 6422,
      "hope": 6423,
      "knot": 6424,
      "ni": 6425,
      "saved": 6426,
      "rebel": 6427,
      "eness": 6428,
      "icon": 6429,
      "entially": 6430,
      "seat": 6431,
      "bean": 6432,
      "univers": 6433,
      "oty": 6434,
      "aked": 6435,
      "assass": 6436,
      "Chains": 6437,
      "Anonymous": 6438,
      "pregn": 6439,
      "Marl": 6440,
      "Carib": 6441,
      "appropri": 6442,
      "closely": 6443,
      "1936": 6444,
      "college": 6445,
      "competitions": 6446,
      "typical": 6447,
      "association": 6448,
      "accident": 6449,
      "suitable": 6450,
      "digital": 6451,
      "weakened": 6452,
      "Iguanodon": 6453,
      "Ulysses": 6454,
      "62": 6455,
      "Bos": 6456,
      "Bern": 6457,
      "Bond": 6458,
      "Gil": 6459,
      "Nev": 6460,
      "Ode": 6461,
      "Wy": 6462,
      "bone": 6463,
      "nic": 6464,
      "page": 6465,
      "sight": 6466,
      "tack": 6467,
      "wel": 6468,
      "thetic": 6469,
      "stances": 6470,
      "cher": 6471,
      "demo": 6472,
      "urs": 6473,
      "1919": 6474,
      "iston": 6475,
      "neither": 6476,
      "derived": 6477,
      "brary": 6478,
      "rence": 6479,
      "answ": 6480,
      "finish": 6481,
      "fles": 6482,
      "anned": 6483,
      "eleven": 6484,
      "filming": 6485,
      "submar": 6486,
      "viewed": 6487,
      "Maria": 6488,
      "1946": 6489,
      "reading": 6490,
      "1973": 6491,
      "Columb": 6492,
      "missing": 6493,
      "battalions": 6494,
      "programming": 6495,
      "invited": 6496,
      "motion": 6497,
      "Braz": 6498,
      "innings": 6499,
      "occasionally": 6500,
      "reinforce": 6501,
      "administration": 6502,
      "Area": 6503,
      "opportunity": 6504,
      "Radio": 6505,
      "repeated": 6506,
      "permanent": 6507,
      "ceremony": 6508,
      "Hornung": 6509,
      "Summer": 6510,
      "Anthony": 6511,
      "Aston": 6512,
      "ERA": 6513,
      "Mel": 6514,
      "NS": 6515,
      "OT": 6516,
      "Public": 6517,
      "Sap": 6518,
      "Spr": 6519,
      "bin": 6520,
      "bought": 6521,
      "basket": 6522,
      "ji": 6523,
      "vens": 6524,
      "stal": 6525,
      "itors": 6526,
      "agle": 6527,
      "iful": 6528,
      "twel": 6529,
      "bra": 6530,
      "athers": 6531,
      "Arts": 6532,
      "supposed": 6533,
      "locations": 6534,
      "receive": 6535,
      "receiving": 6536,
      "1967": 6537,
      "district": 6538,
      "protected": 6539,
      "storyline": 6540,
      "Georg": 6541,
      "electric": 6542,
      "massive": 6543,
      "indicate": 6544,
      "satis": 6545,
      "pilot": 6546,
      "secure": 6547,
      "vehicles": 6548,
      "revolution": 6549,
      "dissipated": 6550,
      "comfortable": 6551,
      "Caribbean": 6552,
      "AML": 6553,
      "Bishop": 6554,
      "Dota": 6555,
      "Oh": 6556,
      "fal": 6557,
      "fuel": 6558,
      "hun": 6559,
      "uters": 6560,
      "atus": 6561,
      "store": 6562,
      "agu": 6563,
      "abo": 6564,
      "quieter": 6565,
      "mann": 6566,
      "dub": 6567,
      "intend": 6568,
      "forming": 6569,
      "iously": 6570,
      "Asia": 6571,
      "drama": 6572,
      "appeal": 6573,
      "appearing": 6574,
      "sounds": 6575,
      "authors": 6576,
      "churches": 6577,
      "glas": 6578,
      "Mountain": 6579,
      "survived": 6580,
      "doub": 6581,
      "painting": 6582,
      "Cardinal": 6583,
      "biography": 6584,
      "History": 6585,
      "1930s": 6586,
      "Douglas": 6587,
      "chorus": 6588,
      "Constantine": 6589,
      "atmosphere": 6590,
      "Turkish": 6591,
      "widespread": 6592,
      "72": 6593,
      "Daily": 6594,
      "Hor": 6595,
      "Hard": 6596,
      "Hindu": 6597,
      "Rio": 6598,
      "VN": 6599,
      "bie": 6600,
      "cod": 6601,
      "tz": 6602,
      "ani": 6603,
      "aton": 6604,
      "islands": 6605,
      "oul": 6606,
      "acid": 6607,
      "beth": 6608,
      "Theatre": 6609,
      "ette": 6610,
      "1914": 6611,
      "sud": 6612,
      "compon": 6613,
      "auto": 6614,
      "evacu": 6615,
      "speech": 6616,
      "Arm": 6617,
      "ificial": 6618,
      "product": 6619,
      "1945": 6620,
      "trying": 6621,
      "1971": 6622,
      "funding": 6623,
      "providing": 6624,
      "aurus": 6625,
      "reality": 6626,
      "initi": 6627,
      "Perry": 6628,
      "looked": 6629,
      "technique": 6630,
      "motor": 6631,
      "settlers": 6632,
      "happy": 6633,
      "flights": 6634,
      "acquired": 6635,
      "truth": 6636,
      "opinion": 6637,
      "Hibari": 6638,
      "Additionally": 6639,
      "250": 6640,
      "71": 6641,
      "79": 6642,
      "81": 6643,
      "Bell": 6644,
      "DNA": 6645,
      "Es": 6646,
      "Gang": 6647,
      "Kil": 6648,
      "Pers": 6649,
      "Qedar": 6650,
      "Ré": 6651,
      "fold": 6652,
      "tend": 6653,
      "von": 6654,
      "inte": 6655,
      "enge": 6656,
      "arranged": 6657,
      "rol": 6658,
      "aced": 6659,
      "ilton": 6660,
      "amin": 6661,
      "apers": 6662,
      "bling": 6663,
      "formal": 6664,
      "ountain": 6665,
      "succeeded": 6666,
      "1982": 6667,
      "depicted": 6668,
      "willing": 6669,
      "towns": 6670,
      "turning": 6671,
      "Romani": 6672,
      "Georgian": 6673,
      "expans": 6674,
      "Maeda": 6675,
      "graded": 6676,
      "About": 6677,
      "AAF": 6678,
      "Holy": 6679,
      "watched": 6680,
      "experiment": 6681,
      "Oslo": 6682,
      "safety": 6683,
      "instrument": 6684,
      "converted": 6685,
      "Shortly": 6686,
      "wedding": 6687,
      "AD": 6688,
      "CC": 6689,
      "Jay": 6690,
      "Jones": 6691,
      "Kat": 6692,
      "Mul": 6693,
      "Tel": 6694,
      "kins": 6695,
      "tied": 6696,
      "intr": 6697,
      "inder": 6698,
      "ero": 6699,
      "remember": 6700,
      "entry": 6701,
      "brand": 6702,
      "pton": 6703,
      "charter": 6704,
      "crash": 6705,
      "producing": 6706,
      "views": 6707,
      "useful": 6708,
      "1943": 6709,
      "1976": 6710,
      "ception": 6711,
      "glades": 6712,
      "Moz": 6713,
      "Somal": 6714,
      "defined": 6715,
      "teaching": 6716,
      "convoy": 6717,
      "credited": 6718,
      "Venus": 6719,
      "Friends": 6720,
      "split": 6721,
      "Haiti": 6722,
      "Fantasy": 6723,
      "Brazil": 6724,
      "89": 6725,
      "Ash": 6726,
      "Fel": 6727,
      "Homer": 6728,
      "LI": 6729,
      "NBC": 6730,
      "Sa": 6731,
      "Top": 6732,
      "dry": 6733,
      "franch": 6734,
      "march": 6735,
      "psy": 6736,
      "taught": 6737,
      "infe": 6738,
      "institut": 6739,
      "sta": 6740,
      "stic": 6741,
      "ola": 6742,
      "irt": 6743,
      "uma": 6744,
      "1916": 6745,
      "abour": 6746,
      "abilities": 6747,
      "iege": 6748,
      "spacing": 6749,
      "rank": 6750,
      "renamed": 6751,
      "airport": 6752,
      "rows": 6753,
      "monitor": 6754,
      "supplies": 6755,
      "anka": 6756,
      "protect": 6757,
      "Allied": 6758,
      "breaking": 6759,
      "sequences": 6760,
      "explos": 6761,
      "penalty": 6762,
      "magn": 6763,
      "decline": 6764,
      "introduction": 6765,
      "technical": 6766,
      "appointment": 6767,
      "prede": 6768,
      "baseball": 6769,
      "separated": 6770,
      "patron": 6771,
      "Research": 6772,
      "establishment": 6773,
      "circum": 6774,
      "Archae": 6775,
      "earthquake": 6776,
      "safe": 6777,
      "pattern": 6778,
      "routes": 6779,
      "distinct": 6780,
      "thousands": 6781,
      "delivered": 6782,
      "Freder": 6783,
      "Lieutenant": 6784,
      "Chelsea": 6785,
      "IGN": 6786,
      "AR": 6787,
      "Age": 6788,
      "Dom": 6789,
      "Dark": 6790,
      "Power": 6791,
      "Snow": 6792,
      "UTC": 6793,
      "Ye": 6794,
      "bass": 6795,
      "cos": 6796,
      "gé": 6797,
      "jump": 6798,
      "knew": 6799,
      "rural": 6800,
      "tall": 6801,
      "atures": 6802,
      "isers": 6803,
      "iled": 6804,
      "imize": 6805,
      "oting": 6806,
      "rie": 6807,
      "essed": 6808,
      "excel": 6809,
      "quite": 6810,
      "mention": 6811,
      "Chronic": 6812,
      "Stadium": 6813,
      "recru": 6814,
      "attle": 6815,
      "noisy": 6816,
      "10th": 6817,
      "unting": 6818,
      "remainder": 6819,
      "1963": 6820,
      "commanded": 6821,
      "USA": 6822,
      "11th": 6823,
      "turns": 6824,
      "camps": 6825,
      "generation": 6826,
      "1956": 6827,
      "solid": 6828,
      "correspond": 6829,
      "Simon": 6830,
      "Walter": 6831,
      "surviv": 6832,
      "Morrison": 6833,
      "ruled": 6834,
      "consisting": 6835,
      "specifically": 6836,
      "certified": 6837,
      "cruiser": 6838,
      "rupt": 6839,
      "baby": 6840,
      "powers": 6841,
      "rhyth": 6842,
      "Secretary": 6843,
      "Brien": 6844,
      "Committee": 6845,
      "Free": 6846,
      "Patt": 6847,
      "Rest": 6848,
      "Sav": 6849,
      "dict": 6850,
      "gall": 6851,
      "gone": 6852,
      "sle": 6853,
      "tie": 6854,
      "wins": 6855,
      "ona": 6856,
      "usc": 6857,
      "opposition": 6858,
      "pled": 6859,
      "abled": 6860,
      "emperor": 6861,
      "emotional": 6862,
      "expect": 6863,
      "brid": 6864,
      "oked": 6865,
      "evo": 6866,
      "evol": 6867,
      "attached": 6868,
      "noon": 6869,
      "minister": 6870,
      "regime": 6871,
      "issance": 6872,
      "someone": 6873,
      "Sha": 6874,
      "studied": 6875,
      "1980": 6876,
      "reception": 6877,
      "leads": 6878,
      "1978": 6879,
      "valley": 6880,
      "Australians": 6881,
      "Stevens": 6882,
      "joint": 6883,
      "communic": 6884,
      "communities": 6885,
      "entering": 6886,
      "occurs": 6887,
      "regularly": 6888,
      "decreasing": 6889,
      "Sunday": 6890,
      "Display": 6891,
      "alternative": 6892,
      "Hollywood": 6893,
      "economy": 6894,
      "Golden": 6895,
      "Everglades": 6896,
      "Truj": 6897,
      "Columbia": 6898,
      "112": 6899,
      "77": 6900,
      "Dur": 6901,
      "Jun": 6902,
      "Kel": 6903,
      "Lev": 6904,
      "Native": 6905,
      "Pre": 6906,
      "fashion": 6907,
      "hat": 6908,
      "jac": 6909,
      "mere": 6910,
      "puzz": 6911,
      "races": 6912,
      "va": 6913,
      "vac": 6914,
      "vary": 6915,
      "zone": 6916,
      "replace": 6917,
      "deck": 6918,
      "irs": 6919,
      "immig": 6920,
      "idd": 6921,
      "ardo": 6922,
      "ameter": 6923,
      "computers": 6924,
      "prey": 6925,
      "forests": 6926,
      "monarch": 6927,
      "issipp": 6928,
      "ampions": 6929,
      "drug": 6930,
      "download": 6931,
      "ribed": 6932,
      "survey": 6933,
      "surrender": 6934,
      "perior": 6935,
      "successor": 6936,
      "Gram": 6937,
      "handle": 6938,
      "1953": 6939,
      "denied": 6940,
      "effectively": 6941,
      "Mississipp": 6942,
      "processing": 6943,
      "interested": 6944,
      "difficulty": 6945,
      "Maryland": 6946,
      "Croatian": 6947,
      "Gully": 6948,
      "scholars": 6949,
      "methods": 6950,
      "shooting": 6951,
      "portrayed": 6952,
      "Director": 6953,
      "Office": 6954,
      "Trujillo": 6955,
      "Pul": 6956,
      "Rel": 6957,
      "Ridge": 6958,
      "Tal": 6959,
      "Yank": 6960,
      "cry": 6961,
      "dal": 6962,
      "file": 6963,
      "lu": 6964,
      "pse": 6965,
      "uous": 6966,
      "ala": 6967,
      "leaves": 6968,
      "acre": 6969,
      "aments": 6970,
      "ceived": 6971,
      "convict": 6972,
      "agen": 6973,
      "agree": 6974,
      "agues": 6975,
      "plants": 6976,
      "1915": 6977,
      "aka": 6978,
      "ester": 6979,
      "itsune": 6980,
      "worst": 6981,
      "dismissed": 6982,
      "attributed": 6983,
      "offers": 6984,
      "rend": 6985,
      "interior": 6986,
      "finishing": 6987,
      "shel": 6988,
      "Alan": 6989,
      "gameplay": 6990,
      "soil": 6991,
      "charges": 6992,
      "crime": 6993,
      "suppor": 6994,
      "hys": 6995,
      "statement": 6996,
      "listen": 6997,
      "strip": 6998,
      "seeing": 6999,
      "Charlie": 7000,
      "Activision": 7001,
      "chapel": 7002,
      "schedule": 7003,
      "bringing": 7004,
      "message": 7005,
      "Alexander": 7006,
      "Engineer": 7007,
      "opposite": 7008,
      "reputation": 7009,
      "Roxas": 7010,
      "sudden": 7011,
      "Kn": 7012,
      "Ko": 7013,
      "Less": 7014,
      "Mun": 7015,
      "Rangers": 7016,
      "Sri": 7017,
      "fant": 7018,
      "anz": 7019,
      "remo": 7020,
      "tos": 7021,
      "1913": 7022,
      "clar": 7023,
      "exh": 7024,
      "mental": 7025,
      "noting": 7026,
      "brighter": 7027,
      "evil": 7028,
      "desire": 7029,
      "Anton": 7030,
      "monument": 7031,
      "norm": 7032,
      "capacity": 7033,
      "Recording": 7034,
      "ologists": 7035,
      "classes": 7036,
      "Plunk": 7037,
      "Stefan": 7038,
      "basin": 7039,
      "novels": 7040,
      "terminal": 7041,
      "reduce": 7042,
      "discussed": 7043,
      "Samuel": 7044,
      "discovery": 7045,
      "Firefox": 7046,
      "Weekly": 7047,
      "battleship": 7048,
      "tribes": 7049,
      "mushroom": 7050,
      "Mississippi": 7051,
      "Danny": 7052,
      "Ele": 7053,
      "Lenn": 7054,
      "Mit": 7055,
      "Press": 7056,
      "Pope": 7057,
      "cab": 7058,
      "dock": 7059,
      "ez": 7060,
      "nick": 7061,
      "sessions": 7062,
      "tone": 7063,
      "younger": 7064,
      "ét": 7065,
      "itage": 7066,
      "sections": 7067,
      "aggress": 7068,
      "isted": 7069,
      "grave": 7070,
      "owner": 7071,
      "kee": 7072,
      "partial": 7073,
      "offense": 7074,
      "myth": 7075,
      "medieval": 7076,
      "pointed": 7077,
      "showing": 7078,
      "Marine": 7079,
      "describing": 7080,
      "standards": 7081,
      "legs": 7082,
      "Prov": 7083,
      "Within": 7084,
      "divine": 7085,
      "connection": 7086,
      "coastal": 7087,
      "squadron": 7088,
      "bella": 7089,
      "Howard": 7090,
      "muted": 7091,
      "Hugh": 7092,
      "Calvert": 7093,
      "rarely": 7094,
      "platform": 7095,
      "article": 7096,
      "Isabella": 7097,
      "knots": 7098,
      "predecess": 7099,
      "69": 7100,
      "Life": 7101,
      "Mod": 7102,
      "Vscode": 7103,
      "bond": 7104,
      "caught": 7105,
      "cinem": 7106,
      "easy": 7107,
      "iences": 7108,
      "jum": 7109,
      "jazz": 7110,
      "ninth": 7111,
      "obl": 7112,
      "ora": 7113,
      "sector": 7114,
      "teacher": 7115,
      "agents": 7116,
      "pete": 7117,
      "manner": 7118,
      "sche": 7119,
      "poses": 7120,
      "Albert": 7121,
      "sons": 7122,
      "releg": 7123,
      "Marsh": 7124,
      "facing": 7125,
      "basic": 7126,
      "Nether": 7127,
      "honour": 7128,
      "accounts": 7129,
      "happened": 7130,
      "Strand": 7131,
      "considerable": 7132,
      "Bradford": 7133,
      "dollars": 7134,
      "mobile": 7135,
      "Lisa": 7136,
      "industrial": 7137,
      "description": 7138,
      "Eliza": 7139,
      "simultaneously": 7140,
      "Yankovic": 7141,
      "58": 7142,
      "Hon": 7143,
      "IS": 7144,
      "Jif": 7145,
      "Jos": 7146,
      "Mach": 7147,
      "PC": 7148,
      "Por": 7149,
      "Saraj": 7150,
      "Xe": 7151,
      "Yan": 7152,
      "gor": 7153,
      "gate": 7154,
      "lists": 7155,
      "pit": 7156,
      "enh": 7157,
      "arg": 7158,
      "itled": 7159,
      "ented": 7160,
      "deed": 7161,
      "veget": 7162,
      "terior": 7163,
      "resol": 7164,
      "1917": 7165,
      "mos": 7166,
      "cles": 7167,
      "ateur": 7168,
      "creative": 7169,
      "strain": 7170,
      "firing": 7171,
      "landed": 7172,
      "liked": 7173,
      "intersection": 7174,
      "angerous": 7175,
      "volunte": 7176,
      "Around": 7177,
      "ceratops": 7178,
      "1948": 7179,
      "wooden": 7180,
      "politics": 7181,
      "involvement": 7182,
      "charts": 7183,
      "relationships": 7184,
      "sufficient": 7185,
      "poems": 7186,
      "ruli": 7187,
      "rules": 7188,
      "Jersey": 7189,
      "journey": 7190,
      "Victoria": 7191,
      "neighbor": 7192,
      "premiere": 7193,
      "embark": 7194,
      "opponents": 7195,
      "Clarkson": 7196,
      "explorer": 7197,
      "Rolling": 7198,
      "restaurant": 7199,
      "conversation": 7200,
      "integr": 7201,
      "Sarajevo": 7202,
      "57": 7203,
      "Cru": 7204,
      "Di": 7205,
      "Fame": 7206,
      "NO": 7207,
      "Pur": 7208,
      "Rap": 7209,
      "py": 7210,
      "soft": 7211,
      "wich": 7212,
      "infr": 7213,
      "replacement": 7214,
      "anda": 7215,
      "ione": 7216,
      "leuk": 7217,
      "ows": 7218,
      "concer": 7219,
      "comments": 7220,
      "Init": 7221,
      "asser": 7222,
      "strateg": 7223,
      "ureau": 7224,
      "intention": 7225,
      "offman": 7226,
      "ranean": 7227,
      "consum": 7228,
      "ression": 7229,
      "erald": 7230,
      "cycle": 7231,
      "1979": 7232,
      "13th": 7233,
      "carbon": 7234,
      "approved": 7235,
      "believes": 7236,
      "Stephen": 7237,
      "vote": 7238,
      "looks": 7239,
      "moral": 7240,
      "munic": 7241,
      "existed": 7242,
      "Wilde": 7243,
      "Somali": 7244,
      "hotel": 7245,
      "windows": 7246,
      "painted": 7247,
      "concerns": 7248,
      "secured": 7249,
      "favorite": 7250,
      "adjustment": 7251,
      "absor": 7252,
      "colonial": 7253,
      "emerged": 7254,
      "leadership": 7255,
      "picked": 7256,
      "Industry": 7257,
      "turret": 7258,
      "Bono": 7259,
      "Destiny": 7260,
      "fungus": 7261,
      "adapted": 7262,
      "Mozamb": 7263,
      "88": 7264,
      "Net": 7265,
      "Say": 7266,
      "Santa": 7267,
      "hot": 7268,
      "mad": 7269,
      "mart": 7270,
      "thin": 7271,
      "ano": 7272,
      "orbit": 7273,
      "sters": 7274,
      "alph": 7275,
      "ingale": 7276,
      "seg": 7277,
      "aga": 7278,
      "apart": 7279,
      "opt": 7280,
      "plane": 7281,
      "absol": 7282,
      "asters": 7283,
      "grav": 7284,
      "partners": 7285,
      "Lee": 7286,
      "signing": 7287,
      "1961": 7288,
      "distribution": 7289,
      "inking": 7290,
      "chemical": 7291,
      "1937": 7292,
      "drawing": 7293,
      "experiences": 7294,
      "darker": 7295,
      "approached": 7296,
      "documents": 7297,
      "nomination": 7298,
      "immediate": 7299,
      "Jerusal": 7300,
      "habitat": 7301,
      "Olympics": 7302,
      "patterns": 7303,
      "specimens": 7304,
      "extremely": 7305,
      "incorporated": 7306,
      "Castle": 7307,
      "Skye": 7308,
      "principal": 7309,
      "Jifna": 7310,
      "Jerusalem": 7311,
      "63": 7312,
      "Bank": 7313,
      "Cory": 7314,
      "Lower": 7315,
      "Nick": 7316,
      "Rif": 7317,
      "Sand": 7318,
      "Wi": 7319,
      "crown": 7320,
      "none": 7321,
      "rus": 7322,
      "ua": 7323,
      "wine": 7324,
      "incess": 7325,
      "lets": 7326,
      "sects": 7327,
      "conference": 7328,
      "users": 7329,
      "iday": 7330,
      "rif": 7331,
      "istry": 7332,
      "acknow": 7333,
      "Chart": 7334,
      "spaces": 7335,
      "disci": 7336,
      "parties": 7337,
      "phr": 7338,
      "interaction": 7339,
      "fled": 7340,
      "genre": 7341,
      "retire": 7342,
      "whereas": 7343,
      "completion": 7344,
      "distributed": 7345,
      "covering": 7346,
      "placing": 7347,
      "Carter": 7348,
      "asking": 7349,
      "iversary": 7350,
      "continuing": 7351,
      "wants": 7352,
      "cuts": 7353,
      "tries": 7354,
      "1951": 7355,
      "1958": 7356,
      "Prime": 7357,
      "Organ": 7358,
      "expensive": 7359,
      "diameter": 7360,
      "displays": 7361,
      "Hamilton": 7362,
      "temporarily": 7363,
      "Discord": 7364,
      "settled": 7365,
      "questions": 7366,
      "indicated": 7367,
      "teeth": 7368,
      "threatened": 7369,
      "surrounded": 7370,
      "challenge": 7371,
      "demol": 7372,
      "europium": 7373,
      "preferred": 7374,
      "Francisco": 7375,
      "Argentina": 7376,
      "Family": 7377,
      "organizations": 7378,
      "satisf": 7379,
      "institutions": 7380,
      "Frederick": 7381,
      "Bron": 7382,
      "CO": 7383,
      "DC": 7384,
      "Here": 7385,
      "Iron": 7386,
      "Rom": 7387,
      "Sports": 7388,
      "Wim": 7389,
      "bay": 7390,
      "bats": 7391,
      "cular": 7392,
      "dess": 7393,
      "horn": 7394,
      "iot": 7395,
      "ocean": 7396,
      "ridge": 7397,
      "sion": 7398,
      "wet": 7399,
      "yes": 7400,
      "inland": 7401,
      "inhabit": 7402,
      "theat": 7403,
      "isms": 7404,
      "itals": 7405,
      "rob": 7406,
      "accom": 7407,
      "admitted": 7408,
      "detailed": 7409,
      "urally": 7410,
      "unusual": 7411,
      "elli": 7412,
      "umin": 7413,
      "etts": 7414,
      "shark": 7415,
      "clock": 7416,
      "essential": 7417,
      "output": 7418,
      "overs": 7419,
      "afts": 7420,
      "aws": 7421,
      "indig": 7422,
      "raise": 7423,
      "regional": 7424,
      "muscar": 7425,
      "1949": 7426,
      "valu": 7427,
      "Carl": 7428,
      "winner": 7429,
      "sequently": 7430,
      "1954": 7431,
      "personnel": 7432,
      "references": 7433,
      "Perfect": 7434,
      "alien": 7435,
      "historians": 7436,
      "divisions": 7437,
      "Similar": 7438,
      "crossed": 7439,
      "railway": 7440,
      "mistake": 7441,
      "ratings": 7442,
      "documentary": 7443,
      "hoped": 7444,
      "scientific": 7445,
      "Colonel": 7446,
      "Television": 7447,
      "lbw": 7448,
      "Simpsons": 7449,
      "Banai": 7450,
      "Independent": 7451,
      "Ryan": 7452,
      "expedition": 7453,
      "isolated": 7454,
      "inspiration": 7455,
      "astronom": 7456,
      "citiz": 7457,
      "3D": 7458,
      "Ball": 7459,
      "CP": 7460,
      "Cop": 7461,
      "Fras": 7462,
      "Jere": 7463,
      "Jean": 7464,
      "MO": 7465,
      "Take": 7466,
      "Vis": 7467,
      "Wars": 7468,
      "coup": 7469,
      "ko": 7470,
      "scre": 7471,
      "uct": 7472,
      "zen": 7473,
      "ívar": 7474,
      "orous": 7475,
      "stell": 7476,
      "select": 7477,
      "adjac": 7478,
      "imet": 7479,
      "romantic": 7480,
      "proceed": 7481,
      "shif": 7482,
      "cler": 7483,
      "trap": 7484,
      "endar": 7485,
      "assumed": 7486,
      "Chief": 7487,
      "scape": 7488,
      "Unlike": 7489,
      "raising": 7490,
      "anniversary": 7491,
      "medium": 7492,
      "Develop": 7493,
      "ologies": 7494,
      "1977": 7495,
      "passage": 7496,
      "Forces": 7497,
      "classical": 7498,
      "protests": 7499,
      "Color": 7500,
      "characteristics": 7501,
      "Hergé": 7502,
      "grounds": 7503,
      "sequel": 7504,
      "1955": 7505,
      "reviewer": 7506,
      "Order": 7507,
      "strongly": 7508,
      "examples": 7509,
      "equal": 7510,
      "equival": 7511,
      "destroyers": 7512,
      "treated": 7513,
      "Duke": 7514,
      "treaty": 7515,
      "cruisers": 7516,
      "fixed": 7517,
      "Military": 7518,
      "Janeiro": 7519,
      "watershed": 7520,
      "Bolívar": 7521,
      "junction": 7522,
      "smooth": 7523,
      "academic": 7524,
      "easily": 7525,
      "franchise": 7526,
      "DH": 7527,
      "Det": 7528,
      "Let": 7529,
      "Pass": 7530,
      "Pine": 7531,
      "WW": 7532,
      "Yo": 7533,
      "ees": 7534,
      "governor": 7535,
      "kān": 7536,
      "lake": 7537,
      "mud": 7538,
      "saves": 7539,
      "tent": 7540,
      "analy": 7541,
      "online": 7542,
      "edom": 7543,
      "rever": 7544,
      "orche": 7545,
      "stadium": 7546,
      "owed": 7547,
      "usad": 7548,
      "apy": 7549,
      "plus": 7550,
      "plate": 7551,
      "cloud": 7552,
      "quit": 7553,
      "overw": 7554,
      "strate": 7555,
      "feed": 7556,
      "spin": 7557,
      "intense": 7558,
      "Hearts": 7559,
      "Ant": 7560,
      "internet": 7561,
      "airline": 7562,
      "angle": 7563,
      "oba": 7564,
      "consult": 7565,
      "Norman": 7566,
      "developer": 7567,
      "1983": 7568,
      "perspect": 7569,
      "defended": 7570,
      "grey": 7571,
      "shots": 7572,
      "solution": 7573,
      "clearly": 7574,
      "percentage": 7575,
      "rapped": 7576,
      "BCE": 7577,
      "Montana": 7578,
      "practices": 7579,
      "dynam": 7580,
      "feeling": 7581,
      "photograph": 7582,
      "Offic": 7583,
      "literary": 7584,
      "Territ": 7585,
      "Lords": 7586,
      "department": 7587,
      "Stock": 7588,
      "minimum": 7589,
      "attracted": 7590,
      "tasks": 7591,
      "wearing": 7592,
      "Adams": 7593,
      "Rhodes": 7594,
      "Journal": 7595,
      "eighth": 7596,
      "rescue": 7597,
      "eggs": 7598,
      "protagonist": 7599,
      "Saprang": 7600,
      "Spring": 7601,
      "Kilmer": 7602,
      "expansion": 7603,
      "normally": 7604,
      "99": 7605,
      "AP": 7606,
      "AT": 7607,
      "Goffman": 7608,
      "Jac": 7609,
      "Mand": 7610,
      "Mot": 7611,
      "Ra": 7612,
      "Sher": 7613,
      "Tu": 7614,
      "Ton": 7615,
      "Wolf": 7616,
      "cens": 7617,
      "faster": 7618,
      "nut": 7619,
      "tick": 7620,
      "yo": 7621,
      "income": 7622,
      "stall": 7623,
      "chronic": 7624,
      "implement": 7625,
      "igation": 7626,
      "opher": 7627,
      "1910": 7628,
      "trust": 7629,
      "meets": 7630,
      "interchange": 7631,
      "flat": 7632,
      "Shut": 7633,
      "Joe": 7634,
      "operate": 7635,
      "designation": 7636,
      "requires": 7637,
      "Gerard": 7638,
      "tribut": 7639,
      "courts": 7640,
      "iamond": 7641,
      "attempting": 7642,
      "terminus": 7643,
      "traveled": 7644,
      "difficulties": 7645,
      "surviving": 7646,
      "languages": 7647,
      "accused": 7648,
      "engineering": 7649,
      "panel": 7650,
      "territories": 7651,
      "Square": 7652,
      "blocks": 7653,
      "Lawton": 7654,
      "reserve": 7655,
      "bledon": 7656,
      "specimen": 7657,
      "Burns": 7658,
      "encouraged": 7659,
      "duties": 7660,
      "arrangement": 7661,
      "agricultural": 7662,
      "Admiral": 7663,
      "Georgia": 7664,
      "Somalia": 7665,
      "Lennon": 7666,
      "Wimbledon": 7667,
      "adjacent": 7668,
      "Ak": 7669,
      "Dig": 7670,
      "Fern": 7671,
      "Komb": 7672,
      "Now": 7673,
      "Vo": 7674,
      "cash": 7675,
      "foss": 7676,
      "ić": 7677,
      "map": 7678,
      "nav": 7679,
      "theatre": 7680,
      "atom": 7681,
      "arte": 7682,
      "itated": 7683,
      "chi": 7684,
      "depos": 7685,
      "unsuccessful": 7686,
      "agas": 7687,
      "apse": 7688,
      "ophy": 7689,
      "etch": 7690,
      "resent": 7691,
      "abol": 7692,
      "moon": 7693,
      "modif": 7694,
      "superior": 7695,
      "proto": 7696,
      "aku": 7697,
      "excell": 7698,
      "estate": 7699,
      "ritual": 7700,
      "loan": 7701,
      "formally": 7702,
      "recalled": 7703,
      "contribut": 7704,
      "partly": 7705,
      "desk": 7706,
      "Aniston": 7707,
      "angular": 7708,
      "knock": 7709,
      "somewhat": 7710,
      "cki": 7711,
      "ropol": 7712,
      "Attor": 7713,
      "identity": 7714,
      "operating": 7715,
      "storms": 7716,
      "armor": 7717,
      "stands": 7718,
      "causes": 7719,
      "attered": 7720,
      "Guy": 7721,
      "possession": 7722,
      "starling": 7723,
      "generated": 7724,
      "brothers": 7725,
      "limit": 7726,
      "testing": 7727,
      "profit": 7728,
      "diag": 7729,
      "responsibility": 7730,
      "seemed": 7731,
      "Cambridge": 7732,
      "civilian": 7733,
      "Richardson": 7734,
      "linked": 7735,
      "printed": 7736,
      "convin": 7737,
      "Garc": 7738,
      "Commonwealth": 7739,
      "opportunities": 7740,
      "preserved": 7741,
      "recovered": 7742,
      "controversy": 7743,
      "candidate": 7744,
      "texts": 7745,
      "global": 7746,
      "obtained": 7747,
      "custom": 7748,
      "Mortal": 7749,
      "Jeff": 7750,
      "Roger": 7751,
      "twelve": 7752,
      "Kombat": 7753,
      "Bed": 7754,
      "Cur": 7755,
      "Carm": 7756,
      "Corn": 7757,
      "Edu": 7758,
      "Hospital": 7759,
      "Owen": 7760,
      "RNA": 7761,
      "Tower": 7762,
      "Ur": 7763,
      "Wat": 7764,
      "bing": 7765,
      "diet": 7766,
      "hits": 7767,
      "mac": 7768,
      "mature": 7769,
      "sid": 7770,
      "zi": 7771,
      "erog": 7772,
      "stab": 7773,
      "arp": 7774,
      "heim": 7775,
      "forcing": 7776,
      "convent": 7777,
      "optim": 7778,
      "util": 7779,
      "shut": 7780,
      "aks": 7781,
      "Channel": 7782,
      "serial": 7783,
      "elled": 7784,
      "Shakes": 7785,
      "Note": 7786,
      "rug": 7787,
      "Islands": 7788,
      "towers": 7789,
      "funds": 7790,
      "Space": 7791,
      "Germans": 7792,
      "1931": 7793,
      "footage": 7794,
      "keyboard": 7795,
      "Poland": 7796,
      "squad": 7797,
      "hosted": 7798,
      "Keamy": 7799,
      "measures": 7800,
      "keeping": 7801,
      "stayed": 7802,
      "suffering": 7803,
      "Arabic": 7804,
      "concerned": 7805,
      "Singles": 7806,
      "Transport": 7807,
      "controversial": 7808,
      "Formula": 7809,
      "exerc": 7810,
      "exhaust": 7811,
      "Fraser": 7812,
      "Attorney": 7813,
      "Shakespe": 7814,
      "93": 7815,
      "Back": 7816,
      "Base": 7817,
      "Elect": 7818,
      "Kit": 7819,
      "Nintend": 7820,
      "Raj": 7821,
      "SS": 7822,
      "Ut": 7823,
      "cold": 7824,
      "hl": 7825,
      "ipe": 7826,
      "ients": 7827,
      "thosaurus": 7828,
      "inct": 7829,
      "inaug": 7830,
      "atically": 7831,
      "sees": 7832,
      "bearing": 7833,
      "destruction": 7834,
      "elabor": 7835,
      "1900": 7836,
      "1912": 7837,
      "prohib": 7838,
      "atech": 7839,
      "antly": 7840,
      "ockey": 7841,
      "outlook": 7842,
      "graf": 7843,
      "compounds": 7844,
      "brig": 7845,
      "format": 7846,
      "autom": 7847,
      "ensis": 7848,
      "interpret": 7849,
      "annah": 7850,
      "mont": 7851,
      "Beach": 7852,
      "Johnston": 7853,
      "steel": 7854,
      "covers": 7855,
      "Work": 7856,
      "legend": 7857,
      "attacking": 7858,
      "province": 7859,
      "reviewers": 7860,
      "1935": 7861,
      "Barbar": 7862,
      "naissance": 7863,
      "representing": 7864,
      "doesn": 7865,
      "Point": 7866,
      "reveals": 7867,
      "Donald": 7868,
      "preparation": 7869,
      "exception": 7870,
      "circulation": 7871,
      "equipped": 7872,
      "throwing": 7873,
      "debate": 7874,
      "adults": 7875,
      "picture": 7876,
      "Jesus": 7877,
      "parallel": 7878,
      "passengers": 7879,
      "Plunketts": 7880,
      "Corythosaurus": 7881,
      "Shakespeare": 7882,
      "Nintendo": 7883,
      "67": 7884,
      "82": 7885,
      "Joy": 7886,
      "Loc": 7887,
      "Rain": 7888,
      "Sl": 7889,
      "Sem": 7890,
      "Ts": 7891,
      "Tube": 7892,
      "cation": 7893,
      "cot": 7894,
      "crossing": 7895,
      "duration": 7896,
      "kitsune": 7897,
      "pine": 7898,
      "voted": 7899,
      "yer": 7900,
      "inet": 7901,
      "acle": 7902,
      "illy": 7903,
      "amph": 7904,
      "amino": 7905,
      "olay": 7906,
      "aya": 7907,
      "cture": 7908,
      "rivers": 7909,
      "1911": 7910,
      "1929": 7911,
      "exchange": 7912,
      "Story": 7913,
      "lowest": 7914,
      "flash": 7915,
      "genetic": 7916,
      "retained": 7917,
      "charged": 7918,
      "helic": 7919,
      "helmet": 7920,
      "Marines": 7921,
      "belt": 7922,
      "Islam": 7923,
      "transition": 7924,
      "140": 7925,
      "returns": 7926,
      "Guide": 7927,
      "promote": 7928,
      "falling": 7929,
      "refers": 7930,
      "1932": 7931,
      "netic": 7932,
      "driving": 7933,
      "1909": 7934,
      "affair": 7935,
      "Palmy": 7936,
      "watching": 7937,
      "intensified": 7938,
      "occasions": 7939,
      "Lawrence": 7940,
      "FIA": 7941,
      "observations": 7942,
      "Peninsula": 7943,
      "pushed": 7944,
      "affects": 7945,
      "sculpture": 7946,
      "victims": 7947,
      "escort": 7948,
      "remnants": 7949,
      "rebels": 7950,
      "Marlborough": 7951,
      "basketball": 7952,
      "initiative": 7953,
      "uscript": 7954,
      "Elizabeth": 7955,
      "91": 7956,
      "Bark": 7957,
      "Flight": 7958,
      "Tig": 7959,
      "ography": 7960,
      "pause": 7961,
      "siege": 7962,
      "tight": 7963,
      "thy": 7964,
      "rell": 7965,
      "represents": 7966,
      "ensure": 7967,
      "icit": 7968,
      "deem": 7969,
      "owie": 7970,
      "ithic": 7971,
      "cement": 7972,
      "ctic": 7973,
      "option": 7974,
      "plom": 7975,
      "expo": 7976,
      "excess": 7977,
      "crest": 7978,
      "Undo": 7979,
      "anyon": 7980,
      "numbered": 7981,
      "presentation": 7982,
      "musicians": 7983,
      "aska": 7984,
      "talk": 7985,
      "Fei": 7986,
      "quez": 7987,
      "periods": 7988,
      "Geoff": 7989,
      "voiced": 7990,
      "involving": 7991,
      "composer": 7992,
      "pitcher": 7993,
      "thinking": 7994,
      "Prior": 7995,
      "requested": 7996,
      "objects": 7997,
      "moments": 7998,
      "purchase": 7999,
      "Patrick": 8000,
      "camera": 8001,
      "carrying": 8002,
      "restored": 8003,
      "behavi": 8004,
      "vessels": 8005,
      "Writing": 8006,
      "Guardian": 8007,
      "Cambodia": 8008,
      "Stefani": 8009,
      "Netherlands": 8010,
      "concerts": 8011,
      "batsman": 8012,
      "equivalent": 8013,
      "García": 8014,
      "Ag": 8015,
      "Gun": 8016,
      "Hou": 8017,
      "Hud": 8018,
      "Hob": 8019,
      "Nar": 8020,
      "Rug": 8021,
      "Tell": 8022,
      "gard": 8023,
      "gie": 8024,
      "mers": 8025,
      "pure": 8026,
      "rh": 8027,
      "inals": 8028,
      "informed": 8029,
      "invent": 8030,
      "onica": 8031,
      "stick": 8032,
      "heat": 8033,
      "accompany": 8034,
      "iling": 8035,
      "forty": 8036,
      "terbury": 8037,
      "1921": 8038,
      "abund": 8039,
      "prove": 8040,
      "cloth": 8041,
      "trained": 8042,
      "Ing": 8043,
      "astru": 8044,
      "earning": 8045,
      "spur": 8046,
      "prerog": 8047,
      "offs": 8048,
      "weigh": 8049,
      "internal": 8050,
      "youth": 8051,
      "products": 8052,
      "Real": 8053,
      "surpr": 8054,
      "Canterbury": 8055,
      "1962": 8056,
      "controll": 8057,
      "vari": 8058,
      "classic": 8059,
      "considers": 8060,
      "defences": 8061,
      "joining": 8062,
      "1938": 8063,
      "barr": 8064,
      "Mega": 8065,
      "factory": 8066,
      "Techn": 8067,
      "slide": 8068,
      "styles": 8069,
      "YouTube": 8070,
      "telling": 8071,
      "fullscreen": 8072,
      "burgh": 8073,
      "purposes": 8074,
      "laws": 8075,
      "goddess": 8076,
      "ugal": 8077,
      "praise": 8078,
      "Palace": 8079,
      "villages": 8080,
      "narrative": 8081,
      "defeating": 8082,
      "Mediter": 8083,
      "Hotel": 8084,
      "Emperor": 8085,
      "Depression": 8086,
      "committed": 8087,
      "balance": 8088,
      "Setting": 8089,
      "walk": 8090,
      "Type": 8091,
      "Human": 8092,
      "Pitman": 8093,
      "Palestine": 8094,
      "Natural": 8095,
      "Stanley": 8096,
      "exactly": 8097,
      "appropriate": 8098,
      "survivors": 8099,
      "overwhel": 8100,
      "Mediterranean": 8101,
      "AC": 8102,
      "Bi": 8103,
      "Bang": 8104,
      "Fron": 8105,
      "Furt": 8106,
      "Má": 8107,
      "Mir": 8108,
      "NE": 8109,
      "Sweet": 8110,
      "Wic": 8111,
      "bits": 8112,
      "fest": 8113,
      "mam": 8114,
      "nos": 8115,
      "sof": 8116,
      "tip": 8117,
      "ware": 8118,
      "renew": 8119,
      "ende": 8120,
      "stance": 8121,
      "heli": 8122,
      "aming": 8123,
      "rip": 8124,
      "comed": 8125,
      "utz": 8126,
      "shor": 8127,
      "ifies": 8128,
      "eman": 8129,
      "ishment": 8130,
      "afford": 8131,
      "grade": 8132,
      "displayed": 8133,
      "recur": 8134,
      "Alf": 8135,
      "Along": 8136,
      "ictions": 8137,
      "Who": 8138,
      "followers": 8139,
      "Decre": 8140,
      "15th": 8141,
      "valid": 8142,
      "extension": 8143,
      "skills": 8144,
      "soul": 8145,
      "Produ": 8146,
      "tests": 8147,
      "closer": 8148,
      "posted": 8149,
      "criticised": 8150,
      "fifteen": 8151,
      "interests": 8152,
      "interesting": 8153,
      "ullen": 8154,
      "Atlanta": 8155,
      "install": 8156,
      "installed": 8157,
      "feelings": 8158,
      "Imperial": 8159,
      "absence": 8160,
      "visitors": 8161,
      "hundreds": 8162,
      "translation": 8163,
      "accurate": 8164,
      "behavior": 8165,
      "legislation": 8166,
      "proposal": 8167,
      "Korean": 8168,
      "arrested": 8169,
      "dialogue": 8170,
      "Dominican": 8171,
      "Phoen": 8172,
      "Athletic": 8173,
      "Aerith": 8174,
      "iques": 8175,
      "Phillies": 8176,
      "circumstances": 8177,
      "Rugby": 8178,
      "Hok": 8179,
      "Late": 8180,
      "Pict": 8181,
      "Ren": 8182,
      "Son": 8183,
      "Sel": 8184,
      "Usta": 8185,
      "iest": 8186,
      "pm": 8187,
      "rants": 8188,
      "tank": 8189,
      "vation": 8190,
      "instru": 8191
    },
    "merges": [
      [
        "t",
        "h"
      ],
      [
        "i",
        "n"
      ],
      [
        "e",
        "r"
      ],
      [
        "a",
        "n"
      ],
      [
        "th",
        "e"
      ],
      [
        "o",
        "n"
      ],
      [
        "e",
        "d"
      ],
      [
        "r",
        "e"
      ],
      [
        "a",
        "t"
      ],
      [
        "e",
        "n"
      ],
      [
        "o",
        "r"
      ],
      [
        "s",
        "t"
      ],
      [
        "a",
        "l"
      ],
      [
        "a",
        "r"
      ],
      [
        "a",
        "s"
      ],
      [
        "an",
        "d"
      ],
      [
        "o",
        "f"
      ],
      [
        "e",
        "s"
      ],
      [
        "in",
        "g"
      ],
      [
        "i",
        "s"
      ],
      [
        "t",
        "o"
      ],
      [
        "i",
        "t"
      ],
      [
        "o",
        "u"
      ],
      [
        "i",
        "c"
      ],
      [
        "i",
        "on"
      ],
      [
        "l",
        "e"
      ],
      [
        "r",
        "o"
      ],
      [
        "h",
        "e"
      ],
      [
        "a",
        "c"
      ],
      [
        "en",
        "t"
      ],
      [
        "i",
        "l"
      ],
      [
        "s",
        "e"
      ],
      [
        "a",
        "d"
      ],
      [
        "a",
        "m"
      ],
      [
        "o",
        "m"
      ],
      [
        "b",
        "e"
      ],
      [
        "l",
        "y"
      ],
      [
        "c",
        "h"
      ],
      [
        "f",
        "or"
      ],
      [
        "d",
        "e"
      ],
      [
        "u",
        "r"
      ],
      [
        "w",
        "as"
      ],
      [
        "v",
        "e"
      ],
      [
        "o",
        "l"
      ],
      [
        "T",
        "he"
      ],
      [
        "i",
        "r"
      ],
      [
        "i",
        "m"
      ],
      [
        "i",
        "g"
      ],
      [
        "o",
        "w"
      ],
      [
        "u",
        "n"
      ],
      [
        "v",
        "er"
      ],
      [
        "w",
        "h"
      ],
      [
        "-",
        "@"
      ],
      [
        "@",
        "-@"
      ],
      [
        "a",
        "y"
      ],
      [
        "t",
        "er"
      ],
      [
        "i",
        "th"
      ],
      [
        "c",
        "e"
      ],
      [
        "at",
        "ion"
      ],
      [
        "c",
        "on"
      ],
      [
        "th",
        "at"
      ],
      [
        "t",
        "e"
      ],
      [
        "u",
        "s"
      ],
      [
        "w",
        "ith"
      ],
      [
        "c",
        "t"
      ],
      [
        "a",
        "g"
      ],
      [
        "i",
        "d"
      ],
      [
        "o",
        "t"
      ],
      [
        "b",
        "y"
      ],
      [
        "u",
        "l"
      ],
      [
        "e",
        "l"
      ],
      [
        "a",
        "p"
      ],
      [
        "er",
        "e"
      ],
      [
        "r",
        "i"
      ],
      [
        "o",
        "p"
      ],
      [
        "u",
        "m"
      ],
      [
        "ro",
        "m"
      ],
      [
        "e",
        "t"
      ],
      [
        "re",
        "s"
      ],
      [
        "c",
        "om"
      ],
      [
        "p",
        "l"
      ],
      [
        "a",
        "in"
      ],
      [
        "u",
        "t"
      ],
      [
        "1",
        "9"
      ],
      [
        "er",
        "s"
      ],
      [
        "a",
        "b"
      ],
      [
        "ou",
        "n"
      ],
      [
        "al",
        "l"
      ],
      [
        "m",
        "o"
      ],
      [
        "h",
        "is"
      ],
      [
        "0",
        "0"
      ],
      [
        "i",
        "st"
      ],
      [
        "s",
        "u"
      ],
      [
        "a",
        "re"
      ],
      [
        "n",
        "e"
      ],
      [
        "p",
        "ro"
      ],
      [
        "s",
        "h"
      ],
      [
        "p",
        "e"
      ],
      [
        "f",
        "rom"
      ],
      [
        "c",
        "l"
      ],
      [
        "ig",
        "h"
      ],
      [
        "i",
        "f"
      ],
      [
        "at",
        "e"
      ],
      [
        "t",
        "r"
      ],
      [
        "I",
        "n"
      ],
      [
        "o",
        "s"
      ],
      [
        "ar",
        "t"
      ],
      [
        "e",
        "m"
      ],
      [
        "i",
        "es"
      ],
      [
        "th",
        "er"
      ],
      [
        "a",
        "k"
      ],
      [
        "il",
        "l"
      ],
      [
        "es",
        "s"
      ],
      [
        "o",
        "d"
      ],
      [
        "e",
        "x"
      ],
      [
        "e",
        "st"
      ],
      [
        "on",
        "g"
      ],
      [
        "i",
        "v"
      ],
      [
        "w",
        "ere"
      ],
      [
        "an",
        "t"
      ],
      [
        "o",
        "c"
      ],
      [
        "l",
        "d"
      ],
      [
        "ar",
        "d"
      ],
      [
        "i",
        "ve"
      ],
      [
        "ic",
        "h"
      ],
      [
        "a",
        "st"
      ],
      [
        "p",
        "er"
      ],
      [
        "is",
        "h"
      ],
      [
        "q",
        "u"
      ],
      [
        "ou",
        "t"
      ],
      [
        "g",
        "h"
      ],
      [
        "b",
        "er"
      ],
      [
        "or",
        "t"
      ],
      [
        "it",
        "y"
      ],
      [
        "at",
        "ed"
      ],
      [
        "am",
        "e"
      ],
      [
        "m",
        "ent"
      ],
      [
        "d",
        "er"
      ],
      [
        "m",
        "an"
      ],
      [
        "u",
        "d"
      ],
      [
        "igh",
        "t"
      ],
      [
        "al",
        "s"
      ],
      [
        "on",
        "e"
      ],
      [
        "ac",
        "k"
      ],
      [
        "e",
        "ar"
      ],
      [
        "a",
        "v"
      ],
      [
        "i",
        "e"
      ],
      [
        "en",
        "d"
      ],
      [
        "h",
        "ad"
      ],
      [
        "ou",
        "r"
      ],
      [
        "n",
        "ot"
      ],
      [
        "t",
        "w"
      ],
      [
        "ou",
        "gh"
      ],
      [
        "o",
        "ver"
      ],
      [
        "wh",
        "ich"
      ],
      [
        "a",
        "f"
      ],
      [
        "g",
        "e"
      ],
      [
        "oun",
        "d"
      ],
      [
        "a",
        "ve"
      ],
      [
        "as",
        "s"
      ],
      [
        "g",
        "r"
      ],
      [
        "i",
        "p"
      ],
      [
        "in",
        "e"
      ],
      [
        "b",
        "ut"
      ],
      [
        "c",
        "re"
      ],
      [
        "i",
        "an"
      ],
      [
        "al",
        "ly"
      ],
      [
        "ac",
        "t"
      ],
      [
        "or",
        "d"
      ],
      [
        "st",
        "r"
      ],
      [
        "r",
        "it"
      ],
      [
        "C",
        "h"
      ],
      [
        "it",
        "s"
      ],
      [
        "u",
        "p"
      ],
      [
        "ow",
        "n"
      ],
      [
        "f",
        "e"
      ],
      [
        "i",
        "de"
      ],
      [
        "i",
        "a"
      ],
      [
        "d",
        "u"
      ],
      [
        "h",
        "er"
      ],
      [
        "ar",
        "y"
      ],
      [
        "f",
        "ir"
      ],
      [
        "com",
        "p"
      ],
      [
        "s",
        "p"
      ],
      [
        "ou",
        "s"
      ],
      [
        "b",
        "r"
      ],
      [
        "o",
        "re"
      ],
      [
        "2",
        "00"
      ],
      [
        "b",
        "l"
      ],
      [
        "e",
        "p"
      ],
      [
        "ac",
        "h"
      ],
      [
        "S",
        "t"
      ],
      [
        "l",
        "l"
      ],
      [
        "w",
        "or"
      ],
      [
        "2",
        "0"
      ],
      [
        "l",
        "and"
      ],
      [
        "ou",
        "ld"
      ],
      [
        "the",
        "ir"
      ],
      [
        "as",
        "e"
      ],
      [
        "i",
        "re"
      ],
      [
        "p",
        "r"
      ],
      [
        "p",
        "o"
      ],
      [
        "ag",
        "e"
      ],
      [
        "t",
        "im"
      ],
      [
        "fir",
        "st"
      ],
      [
        "pl",
        "ay"
      ],
      [
        "b",
        "o"
      ],
      [
        "o",
        "k"
      ],
      [
        "m",
        "e"
      ],
      [
        "a",
        "w"
      ],
      [
        "l",
        "o"
      ],
      [
        "l",
        "ow"
      ],
      [
        "ic",
        "al"
      ],
      [
        "s",
        "c"
      ],
      [
        "u",
        "re"
      ],
      [
        "it",
        "ion"
      ],
      [
        "in",
        "t"
      ],
      [
        "for",
        "m"
      ],
      [
        "a",
        "u"
      ],
      [
        "s",
        "er"
      ],
      [
        "i",
        "al"
      ],
      [
        "d",
        "is"
      ],
      [
        "als",
        "o"
      ],
      [
        "k",
        "e"
      ],
      [
        "ct",
        "ion"
      ],
      [
        "ig",
        "n"
      ],
      [
        "p",
        "ort"
      ],
      [
        "at",
        "er"
      ],
      [
        "l",
        "i"
      ],
      [
        "e",
        "v"
      ],
      [
        "h",
        "as"
      ],
      [
        "re",
        "c"
      ],
      [
        "at",
        "t"
      ],
      [
        "o",
        "ther"
      ],
      [
        "h",
        "ave"
      ],
      [
        "H",
        "e"
      ],
      [
        "con",
        "t"
      ],
      [
        "in",
        "d"
      ],
      [
        "wh",
        "o"
      ],
      [
        "p",
        "t"
      ],
      [
        "en",
        "ce"
      ],
      [
        "1",
        "8"
      ],
      [
        "om",
        "e"
      ],
      [
        "i",
        "le"
      ],
      [
        "p",
        "art"
      ],
      [
        "g",
        "u"
      ],
      [
        "re",
        "e"
      ],
      [
        "be",
        "en"
      ],
      [
        "th",
        "is"
      ],
      [
        "p",
        "res"
      ],
      [
        "tw",
        "o"
      ],
      [
        "i",
        "z"
      ],
      [
        "com",
        "m"
      ],
      [
        "ur",
        "ing"
      ],
      [
        "of",
        "f"
      ],
      [
        ".",
        "@"
      ],
      [
        "@",
        ".@"
      ],
      [
        "c",
        "ent"
      ],
      [
        "d",
        "es"
      ],
      [
        "r",
        "an"
      ],
      [
        "ul",
        "t"
      ],
      [
        "T",
        "h"
      ],
      [
        "I",
        "t"
      ],
      [
        "ad",
        "e"
      ],
      [
        "v",
        "ed"
      ],
      [
        "el",
        "l"
      ],
      [
        "it",
        "e"
      ],
      [
        "p",
        "os"
      ],
      [
        "w",
        "e"
      ],
      [
        "the",
        "y"
      ],
      [
        "n",
        "o"
      ],
      [
        "ab",
        "le"
      ],
      [
        "y",
        "ear"
      ],
      [
        "or",
        "y"
      ],
      [
        "af",
        "ter"
      ],
      [
        "wor",
        "k"
      ],
      [
        "o",
        "g"
      ],
      [
        "ation",
        "s"
      ],
      [
        "A",
        "n"
      ],
      [
        "re",
        "n"
      ],
      [
        "p",
        "le"
      ],
      [
        "20",
        "1"
      ],
      [
        "p",
        "re"
      ],
      [
        "e",
        "ver"
      ],
      [
        "in",
        "cl"
      ],
      [
        "ve",
        "l"
      ],
      [
        "ar",
        "k"
      ],
      [
        "ur",
        "n"
      ],
      [
        "u",
        "e"
      ],
      [
        "ic",
        "e"
      ],
      [
        "an",
        "s"
      ],
      [
        "p",
        "h"
      ],
      [
        "ak",
        "e"
      ],
      [
        "mo",
        "re"
      ],
      [
        ",",
        "@"
      ],
      [
        "@",
        ",@"
      ],
      [
        "U",
        "n"
      ],
      [
        "s",
        "pe"
      ],
      [
        "f",
        "er"
      ],
      [
        "ac",
        "e"
      ],
      [
        "r",
        "a"
      ],
      [
        "tim",
        "e"
      ],
      [
        "an",
        "ce"
      ],
      [
        "m",
        "in"
      ],
      [
        "en",
        "s"
      ],
      [
        "c",
        "o"
      ],
      [
        "ion",
        "s"
      ],
      [
        "m",
        "er"
      ],
      [
        "ol",
        "d"
      ],
      [
        "o",
        "od"
      ],
      [
        "i",
        "b"
      ],
      [
        "in",
        "to"
      ],
      [
        "r",
        "ic"
      ],
      [
        "un",
        "der"
      ],
      [
        "c",
        "es"
      ],
      [
        "an",
        "y"
      ],
      [
        "in",
        "ter"
      ],
      [
        "oun",
        "t"
      ],
      [
        "mo",
        "st"
      ],
      [
        "sh",
        "ip"
      ],
      [
        "c",
        "ed"
      ],
      [
        "r",
        "ed"
      ],
      [
        "te",
        "m"
      ],
      [
        "f",
        "in"
      ],
      [
        "s",
        "he"
      ],
      [
        "a",
        "ir"
      ],
      [
        "ing",
        "s"
      ],
      [
        "an",
        "g"
      ],
      [
        "us",
        "ed"
      ],
      [
        "w",
        "ould"
      ],
      [
        "con",
        "d"
      ],
      [
        "f",
        "l"
      ],
      [
        "m",
        "ain"
      ],
      [
        "ro",
        "w"
      ],
      [
        "a",
        "th"
      ],
      [
        "an",
        "n"
      ],
      [
        "h",
        "im"
      ],
      [
        "w",
        "ay"
      ],
      [
        "as",
        "ed"
      ],
      [
        "ct",
        "ed"
      ],
      [
        "f",
        "ore"
      ],
      [
        "i",
        "ed"
      ],
      [
        "a",
        "il"
      ],
      [
        "as",
        "on"
      ],
      [
        "ver",
        "s"
      ],
      [
        "o",
        "se"
      ],
      [
        "m",
        "on"
      ],
      [
        "it",
        "ed"
      ],
      [
        "an",
        "e"
      ],
      [
        "c",
        "ess"
      ],
      [
        "se",
        "t"
      ],
      [
        "i",
        "x"
      ],
      [
        "be",
        "c"
      ],
      [
        "i",
        "ous"
      ],
      [
        "at",
        "es"
      ],
      [
        "c",
        "an"
      ],
      [
        "incl",
        "ud"
      ],
      [
        "th",
        "ough"
      ],
      [
        "A",
        "l"
      ],
      [
        "u",
        "st"
      ],
      [
        "ic",
        "k"
      ],
      [
        "ent",
        "s"
      ],
      [
        "e",
        "w"
      ],
      [
        "ic",
        "t"
      ],
      [
        "r",
        "ough"
      ],
      [
        "ne",
        "w"
      ],
      [
        "v",
        "ol"
      ],
      [
        "wh",
        "en"
      ],
      [
        "b",
        "u"
      ],
      [
        "on",
        "ly"
      ],
      [
        "i",
        "o"
      ],
      [
        "A",
        "r"
      ],
      [
        "r",
        "y"
      ],
      [
        "ar",
        "ch"
      ],
      [
        "d",
        "ay"
      ],
      [
        "d",
        "o"
      ],
      [
        "s",
        "ong"
      ],
      [
        "f",
        "ul"
      ],
      [
        "o",
        "b"
      ],
      [
        "il",
        "d"
      ],
      [
        "the",
        "m"
      ],
      [
        "g",
        "an"
      ],
      [
        "k",
        "n"
      ],
      [
        "d",
        "uring"
      ],
      [
        "re",
        "g"
      ],
      [
        "is",
        "s"
      ],
      [
        "g",
        "en"
      ],
      [
        "l",
        "es"
      ],
      [
        "u",
        "bl"
      ],
      [
        "or",
        "s"
      ],
      [
        "t",
        "en"
      ],
      [
        "c",
        "ol"
      ],
      [
        "ab",
        "out"
      ],
      [
        "E",
        "n"
      ],
      [
        "re",
        "t"
      ],
      [
        "W",
        "h"
      ],
      [
        "g",
        "ame"
      ],
      [
        "e",
        "en"
      ],
      [
        "A",
        "u"
      ],
      [
        "s",
        "y"
      ],
      [
        "ag",
        "ain"
      ],
      [
        "re",
        "l"
      ],
      [
        "s",
        "on"
      ],
      [
        "th",
        "an"
      ],
      [
        "t",
        "y"
      ],
      [
        "il",
        "m"
      ],
      [
        "v",
        "is"
      ],
      [
        "w",
        "ard"
      ],
      [
        "am",
        "p"
      ],
      [
        "n",
        "ess"
      ],
      [
        "ol",
        "low"
      ],
      [
        "wh",
        "ile"
      ],
      [
        "l",
        "ar"
      ],
      [
        "n",
        "or"
      ],
      [
        "s",
        "o"
      ],
      [
        "y",
        "ou"
      ],
      [
        "s",
        "ome"
      ],
      [
        "m",
        "y"
      ],
      [
        "se",
        "ason"
      ],
      [
        "w",
        "rit"
      ],
      [
        "o",
        "y"
      ],
      [
        "t",
        "ed"
      ],
      [
        "A",
        "s"
      ],
      [
        "tw",
        "een"
      ],
      [
        "th",
        "ree"
      ],
      [
        "be",
        "tween"
      ],
      [
        "ch",
        "ar"
      ],
      [
        "c",
        "r"
      ],
      [
        "str",
        "u"
      ],
      [
        "er",
        "n"
      ],
      [
        "O",
        "n"
      ],
      [
        "d",
        "r"
      ],
      [
        "th",
        "rough"
      ],
      [
        "19",
        "9"
      ],
      [
        "if",
        "ic"
      ],
      [
        "spe",
        "c"
      ],
      [
        "t",
        "s"
      ],
      [
        "ation",
        "al"
      ],
      [
        "ul",
        "ar"
      ],
      [
        "ou",
        "th"
      ],
      [
        "rec",
        "ord"
      ],
      [
        "n",
        "um"
      ],
      [
        "pro",
        "du"
      ],
      [
        "at",
        "ing"
      ],
      [
        "op",
        "en"
      ],
      [
        "l",
        "ed"
      ],
      [
        "v",
        "ie"
      ],
      [
        "C",
        "om"
      ],
      [
        "wh",
        "ere"
      ],
      [
        "r",
        "on"
      ],
      [
        "t",
        "on"
      ],
      [
        "l",
        "ater"
      ],
      [
        "con",
        "s"
      ],
      [
        "in",
        "s"
      ],
      [
        "c",
        "k"
      ],
      [
        "b",
        "ack"
      ],
      [
        "c",
        "ap"
      ],
      [
        "he",
        "l"
      ],
      [
        "e",
        "le"
      ],
      [
        "ish",
        "ed"
      ],
      [
        "1",
        "0"
      ],
      [
        "re",
        "le"
      ],
      [
        "f",
        "ilm"
      ],
      [
        "g",
        "o"
      ],
      [
        "A",
        "f"
      ],
      [
        "am",
        "es"
      ],
      [
        "the",
        "n"
      ],
      [
        "m",
        "a"
      ],
      [
        "e",
        "f"
      ],
      [
        "su",
        "b"
      ],
      [
        "m",
        "ade"
      ],
      [
        "um",
        "e"
      ],
      [
        "o",
        "de"
      ],
      [
        "a",
        "id"
      ],
      [
        "ur",
        "y"
      ],
      [
        "N",
        "ew"
      ],
      [
        "se",
        "l"
      ],
      [
        "m",
        "us"
      ],
      [
        "c",
        "ur"
      ],
      [
        "h",
        "igh"
      ],
      [
        "d",
        "own"
      ],
      [
        "n",
        "ing"
      ],
      [
        "n",
        "ow"
      ],
      [
        "oc",
        "k"
      ],
      [
        "mer",
        "ic"
      ],
      [
        "A",
        "meric"
      ],
      [
        "s",
        "ing"
      ],
      [
        "u",
        "al"
      ],
      [
        "ter",
        "s"
      ],
      [
        "ap",
        "pe"
      ],
      [
        "vie",
        "w"
      ],
      [
        "S",
        "h"
      ],
      [
        "b",
        "um"
      ],
      [
        "c",
        "all"
      ],
      [
        "w",
        "ell"
      ],
      [
        "u",
        "b"
      ],
      [
        "00",
        "0"
      ],
      [
        "f",
        "ollow"
      ],
      [
        "se",
        "cond"
      ],
      [
        "m",
        "ed"
      ],
      [
        "su",
        "ch"
      ],
      [
        "L",
        "e"
      ],
      [
        "R",
        "e"
      ],
      [
        "f",
        "our"
      ],
      [
        "j",
        "e"
      ],
      [
        "J",
        "o"
      ],
      [
        "T",
        "his"
      ],
      [
        "er",
        "ed"
      ],
      [
        "p",
        "ubl"
      ],
      [
        "N",
        "o"
      ],
      [
        "c",
        "ord"
      ],
      [
        "v",
        "en"
      ],
      [
        "be",
        "fore"
      ],
      [
        "ro",
        "p"
      ],
      [
        "1",
        "6"
      ],
      [
        "il",
        "y"
      ],
      [
        ".",
        "."
      ],
      [
        "su",
        "p"
      ],
      [
        "li",
        "ke"
      ],
      [
        "i",
        "el"
      ],
      [
        "u",
        "se"
      ],
      [
        "A",
        "t"
      ],
      [
        "al",
        "bum"
      ],
      [
        "D",
        "e"
      ],
      [
        "au",
        "se"
      ],
      [
        "at",
        "ive"
      ],
      [
        "th",
        "ere"
      ],
      [
        "po",
        "int"
      ],
      [
        "B",
        "r"
      ],
      [
        "be",
        "ing"
      ],
      [
        "ri",
        "b"
      ],
      [
        "ur",
        "ch"
      ],
      [
        "s",
        "ur"
      ],
      [
        "ar",
        "s"
      ],
      [
        "ic",
        "s"
      ],
      [
        "ad",
        "d"
      ],
      [
        "1",
        "2"
      ],
      [
        "ow",
        "ever"
      ],
      [
        "En",
        "g"
      ],
      [
        "1",
        "5"
      ],
      [
        "ar",
        "ri"
      ],
      [
        "p",
        "ar"
      ],
      [
        "re",
        "at"
      ],
      [
        "it",
        "ies"
      ],
      [
        "man",
        "y"
      ],
      [
        "kn",
        "own"
      ],
      [
        "year",
        "s"
      ],
      [
        "f",
        "ound"
      ],
      [
        "l",
        "ong"
      ],
      [
        "1",
        "7"
      ],
      [
        "al",
        "e"
      ],
      [
        "ro",
        "s"
      ],
      [
        "vel",
        "op"
      ],
      [
        "l",
        "oc"
      ],
      [
        "num",
        "ber"
      ],
      [
        "l",
        "ine"
      ],
      [
        "un",
        "t"
      ],
      [
        "bo",
        "th"
      ],
      [
        "ser",
        "ies"
      ],
      [
        "ple",
        "ase"
      ],
      [
        "ir",
        "d"
      ],
      [
        "N",
        "or"
      ],
      [
        "iv",
        "ed"
      ],
      [
        "is",
        "e"
      ],
      [
        "ment",
        "s"
      ],
      [
        "in",
        "ce"
      ],
      [
        "m",
        "ber"
      ],
      [
        "ol",
        "og"
      ],
      [
        "in",
        "es"
      ],
      [
        "se",
        "ver"
      ],
      [
        "te",
        "am"
      ],
      [
        "e",
        "k"
      ],
      [
        "ch",
        "o"
      ],
      [
        "at",
        "ch"
      ],
      [
        "en",
        "g"
      ],
      [
        "if",
        "e"
      ],
      [
        "t",
        "ain"
      ],
      [
        "on",
        "d"
      ],
      [
        "p",
        "op"
      ],
      [
        "des",
        "c"
      ],
      [
        "ep",
        "is"
      ],
      [
        "includ",
        "ing"
      ],
      [
        "vol",
        "ume"
      ],
      [
        "comp",
        "le"
      ],
      [
        "bec",
        "ame"
      ],
      [
        "h",
        "n"
      ],
      [
        "again",
        "st"
      ],
      [
        "ig",
        "in"
      ],
      [
        "B",
        "rit"
      ],
      [
        "d",
        "ire"
      ],
      [
        "p",
        "ed"
      ],
      [
        "res",
        "s"
      ],
      [
        "s",
        "ide"
      ],
      [
        "fe",
        "at"
      ],
      [
        "c",
        "le"
      ],
      [
        "su",
        "c"
      ],
      [
        "char",
        "ac"
      ],
      [
        "u",
        "ary"
      ],
      [
        "st",
        "ud"
      ],
      [
        "id",
        "ent"
      ],
      [
        "f",
        "o"
      ],
      [
        "u",
        "ch"
      ],
      [
        "de",
        "velop"
      ],
      [
        "C",
        "on"
      ],
      [
        "i",
        "et"
      ],
      [
        "m",
        "em"
      ],
      [
        "cre",
        "en"
      ],
      [
        "f",
        "t"
      ],
      [
        "d",
        "if"
      ],
      [
        "c",
        "er"
      ],
      [
        "sh",
        "ow"
      ],
      [
        "B",
        "e"
      ],
      [
        "appe",
        "ar"
      ],
      [
        "I",
        "I"
      ],
      [
        "he",
        "ad"
      ],
      [
        "op",
        "er"
      ],
      [
        "per",
        "i"
      ],
      [
        "cont",
        "in"
      ],
      [
        "19",
        "8"
      ],
      [
        "o",
        "st"
      ],
      [
        "br",
        "ight"
      ],
      [
        "is",
        "ed"
      ],
      [
        "3",
        "0"
      ],
      [
        "l",
        "an"
      ],
      [
        "u",
        "res"
      ],
      [
        "v",
        "ide"
      ],
      [
        "re",
        "ce"
      ],
      [
        "iel",
        "d"
      ],
      [
        "de",
        "c"
      ],
      [
        "Un",
        "ited"
      ],
      [
        "R",
        "o"
      ],
      [
        "st",
        "art"
      ],
      [
        "Jo",
        "hn"
      ],
      [
        "c",
        "i"
      ],
      [
        "st",
        "or"
      ],
      [
        "r",
        "un"
      ],
      [
        "ser",
        "v"
      ],
      [
        "st",
        "e"
      ],
      [
        "iz",
        "ed"
      ],
      [
        "M",
        "ar"
      ],
      [
        "u",
        "ally"
      ],
      [
        "or",
        "igin"
      ],
      [
        "cent",
        "ury"
      ],
      [
        "d",
        "id"
      ],
      [
        "m",
        "ill"
      ],
      [
        "Af",
        "ter"
      ],
      [
        "le",
        "ad"
      ],
      [
        "a",
        "z"
      ],
      [
        "le",
        "y"
      ],
      [
        "p",
        "ol"
      ],
      [
        "st",
        "em"
      ],
      [
        "r",
        "u"
      ],
      [
        "s",
        "m"
      ],
      [
        "t",
        "ing"
      ],
      [
        "s",
        "ign"
      ],
      [
        "w",
        "est"
      ],
      [
        "d",
        "am"
      ],
      [
        "ar",
        "m"
      ],
      [
        "sever",
        "al"
      ],
      [
        "C",
        "an"
      ],
      [
        "19",
        "4"
      ],
      [
        "be",
        "l"
      ],
      [
        "m",
        "ay"
      ],
      [
        "re",
        "ad"
      ],
      [
        "je",
        "ct"
      ],
      [
        "ro",
        "ad"
      ],
      [
        "er",
        "al"
      ],
      [
        "ou",
        "p"
      ],
      [
        "be",
        "gan"
      ],
      [
        "pres",
        "ent"
      ],
      [
        "end",
        "ed"
      ],
      [
        "fe",
        "ct"
      ],
      [
        "h",
        "y"
      ],
      [
        "h",
        "ist"
      ],
      [
        "mus",
        "ic"
      ],
      [
        "ne",
        "ar"
      ],
      [
        "b",
        "all"
      ],
      [
        "c",
        "ould"
      ],
      [
        "as",
        "h"
      ],
      [
        "or",
        "n"
      ],
      [
        "on",
        "s"
      ],
      [
        "re",
        "main"
      ],
      [
        "ear",
        "ly"
      ],
      [
        "ak",
        "ing"
      ],
      [
        "S",
        "he"
      ],
      [
        "ne",
        "ed"
      ],
      [
        "in",
        "cre"
      ],
      [
        "c",
        "y"
      ],
      [
        "call",
        "ed"
      ],
      [
        "19",
        "6"
      ],
      [
        "suc",
        "cess"
      ],
      [
        "d",
        "ist"
      ],
      [
        "m",
        "et"
      ],
      [
        "x",
        "t"
      ],
      [
        "c",
        "rit"
      ],
      [
        "tr",
        "y"
      ],
      [
        "p",
        "or"
      ],
      [
        "s",
        "aid"
      ],
      [
        "u",
        "te"
      ],
      [
        "is",
        "ion"
      ],
      [
        "19",
        "7"
      ],
      [
        "op",
        "le"
      ],
      [
        "un",
        "e"
      ],
      [
        "pres",
        "s"
      ],
      [
        "l",
        "a"
      ],
      [
        "sel",
        "f"
      ],
      [
        "epis",
        "ode"
      ],
      [
        "n",
        "am"
      ],
      [
        "I",
        "s"
      ],
      [
        "c",
        "over"
      ],
      [
        "an",
        "k"
      ],
      [
        "g",
        "g"
      ],
      [
        "al",
        "ong"
      ],
      [
        "wh",
        "at"
      ],
      [
        "v",
        "al"
      ],
      [
        "lar",
        "ge"
      ],
      [
        "p",
        "ass"
      ],
      [
        "de",
        "p"
      ],
      [
        "j",
        "ust"
      ],
      [
        "W",
        "or"
      ],
      [
        "bright",
        "ness"
      ],
      [
        "b",
        "le"
      ],
      [
        "M",
        "ay"
      ],
[...]
